{
  "version": "1.0",
  "truncation": null,
  "padding": null,
  "added_tokens": [
    {
      "id": 0,
      "content": "<s>",
      "single_word": false,
      "lstrip": false,
      "rstrip": false,
      "normalized": false,
      "special": true
    },
    {
      "id": 1,
      "content": "<pad>",
      "single_word": false,
      "lstrip": false,
      "rstrip": false,
      "normalized": false,
      "special": true
    },
    {
      "id": 2,
      "content": "</s>",
      "single_word": false,
      "lstrip": false,
      "rstrip": false,
      "normalized": false,
      "special": true
    },
    {
      "id": 3,
      "content": "<unk>",
      "single_word": false,
      "lstrip": false,
      "rstrip": false,
      "normalized": false,
      "special": true
    },
    {
      "id": 4,
      "content": "<cls>",
      "single_word": false,
      "lstrip": false,
      "rstrip": false,
      "normalized": false,
      "special": true
    },
    {
      "id": 5,
      "content": "<sep>",
      "single_word": false,
      "lstrip": false,
      "rstrip": false,
      "normalized": false,
      "special": true
    },
    {
      "id": 6,
      "content": "<mask>",
      "single_word": false,
      "lstrip": false,
      "rstrip": false,
      "normalized": false,
      "special": true
    }
  ],
  "normalizer": {
    "type": "NFKC"
  },
  "pre_tokenizer": {
    "type": "Metaspace",
    "replacement": "▁",
    "add_prefix_space": true
  },
  "post_processor": null,
  "decoder": {
    "type": "Metaspace",
    "replacement": "▁",
    "add_prefix_space": true
  },
  "model": {
    "type": "BPE",
    "dropout": null,
    "unk_token": "<unk>",
    "continuing_subword_prefix": null,
    "end_of_word_suffix": null,
    "fuse_unk": false,
    "byte_fallback": false,
    "vocab": {
      "<s>": 0,
      "<pad>": 1,
      "</s>": 2,
      "<unk>": 3,
      "<cls>": 4,
      "<sep>": 5,
      "<mask>": 6,
      "!": 7,
      "\"": 8,
      "#": 9,
      "$": 10,
      "%": 11,
      "&": 12,
      "'": 13,
      "(": 14,
      ")": 15,
      "*": 16,
      "+": 17,
      ",": 18,
      "-": 19,
      ".": 20,
      "/": 21,
      ":": 22,
      ";": 23,
      "<": 24,
      "=": 25,
      ">": 26,
      "?": 27,
      "@": 28,
      "[": 29,
      "\\": 30,
      "]": 31,
      "^": 32,
      "_": 33,
      "`": 34,
      "{": 35,
      "|": 36,
      "}": 37,
      "~": 38,
      "¡": 39,
      "¢": 40,
      "£": 41,
      "¥": 42,
      "§": 43,
      "°": 44,
      "±": 45,
      "¶": 46,
      "·": 47,
      "×": 48,
      "ß": 49,
      "æ": 50,
      "ð": 51,
      "÷": 52,
      "Ə": 53,
      "ɑ": 54,
      "ɒ": 55,
      "ə": 56,
      "ɛ": 57,
      "ɡ": 58,
      "ɪ": 59,
      "ʃ": 60,
      "ʊ": 61,
      "ʒ": 62,
      "ʹ": 63,
      "ʺ": 64,
      "ˈ": 65,
      "ː": 66,
      "́": 67,
      "̈": 68,
      "Α": 69,
      "Δ": 70,
      "Ε": 71,
      "Η": 72,
      "Θ": 73,
      "Κ": 74,
      "Λ": 75,
      "Μ": 76,
      "Ξ": 77,
      "Ο": 78,
      "Π": 79,
      "Σ": 80,
      "Τ": 81,
      "Φ": 82,
      "ά": 83,
      "έ": 84,
      "ή": 85,
      "ί": 86,
      "α": 87,
      "β": 88,
      "γ": 89,
      "δ": 90,
      "ε": 91,
      "ζ": 92,
      "η": 93,
      "θ": 94,
      "ι": 95,
      "κ": 96,
      "λ": 97,
      "μ": 98,
      "ν": 99,
      "ξ": 100,
      "ο": 101,
      "π": 102,
      "ρ": 103,
      "ς": 104,
      "σ": 105,
      "τ": 106,
      "υ": 107,
      "φ": 108,
      "χ": 109,
      "ψ": 110,
      "ω": 111,
      "ό": 112,
      "ύ": 113,
      "А": 114,
      "Б": 115,
      "В": 116,
      "Г": 117,
      "Д": 118,
      "З": 119,
      "И": 120,
      "К": 121,
      "Л": 122,
      "М": 123,
      "Н": 124,
      "О": 125,
      "П": 126,
      "С": 127,
      "Т": 128,
      "Ф": 129,
      "Ч": 130,
      "Ш": 131,
      "Э": 132,
      "а": 133,
      "б": 134,
      "в": 135,
      "г": 136,
      "д": 137,
      "е": 138,
      "ж": 139,
      "з": 140,
      "и": 141,
      "й": 142,
      "к": 143,
      "л": 144,
      "м": 145,
      "н": 146,
      "о": 147,
      "п": 148,
      "р": 149,
      "с": 150,
      "т": 151,
      "у": 152,
      "х": 153,
      "ц": 154,
      "ч": 155,
      "ш": 156,
      "щ": 157,
      "ъ": 158,
      "ы": 159,
      "ь": 160,
      "э": 161,
      "ю": 162,
      "я": 163,
      "ё": 164,
      "і": 165,
      "ј": 166,
      "ө": 167,
      "Ա": 168,
      "ա": 169,
      "բ": 170,
      "ե": 171,
      "ի": 172,
      "կ": 173,
      "հ": 174,
      "ղ": 175,
      "մ": 176,
      "յ": 177,
      "ն": 178,
      "ո": 179,
      "չ": 180,
      "պ": 181,
      "ս": 182,
      "վ": 183,
      "տ": 184,
      "ր": 185,
      "ց": 186,
      "ւ": 187,
      "ք": 188,
      "ְ": 189,
      "ִ": 190,
      "ֵ": 191,
      "ֶ": 192,
      "ַ": 193,
      "ָ": 194,
      "ּ": 195,
      "א": 196,
      "ב": 197,
      "ג": 198,
      "ד": 199,
      "ה": 200,
      "ו": 201,
      "ח": 202,
      "ט": 203,
      "י": 204,
      "ל": 205,
      "ם": 206,
      "מ": 207,
      "ן": 208,
      "נ": 209,
      "ס": 210,
      "ע": 211,
      "פ": 212,
      "צ": 213,
      "ק": 214,
      "ר": 215,
      "ש": 216,
      "ת": 217,
      "،": 218,
      "؟": 219,
      "ء": 220,
      "آ": 221,
      "أ": 222,
      "ؤ": 223,
      "إ": 224,
      "ئ": 225,
      "ا": 226,
      "ب": 227,
      "ة": 228,
      "ت": 229,
      "ث": 230,
      "ج": 231,
      "ح": 232,
      "خ": 233,
      "د": 234,
      "ذ": 235,
      "ر": 236,
      "ز": 237,
      "س": 238,
      "ش": 239,
      "ص": 240,
      "ض": 241,
      "ط": 242,
      "ظ": 243,
      "ع": 244,
      "غ": 245,
      "ـ": 246,
      "ف": 247,
      "ق": 248,
      "ك": 249,
      "ل": 250,
      "م": 251,
      "ن": 252,
      "ه": 253,
      "و": 254,
      "ى": 255,
      "ي": 256,
      "ً": 257,
      "َ": 258,
      "ُ": 259,
      "ِ": 260,
      "ّ": 261,
      "ْ": 262,
      "پ": 263,
      "چ": 264,
      "ڠ": 265,
      "ڤ": 266,
      "ک": 267,
      "ڪ": 268,
      "ګ": 269,
      "گ": 270,
      "ڻ": 271,
      "ھ": 272,
      "ہ": 273,
      "ی": 274,
      "ې": 275,
      "ރ": 276,
      "ސ": 277,
      "ޑ": 278,
      "ަ": 279,
      "ީ": 280,
      "ު": 281,
      "ँ": 282,
      "ं": 283,
      "अ": 284,
      "आ": 285,
      "उ": 286,
      "क": 287,
      "ख": 288,
      "ग": 289,
      "घ": 290,
      "च": 291,
      "ज": 292,
      "ट": 293,
      "ण": 294,
      "त": 295,
      "द": 296,
      "ध": 297,
      "न": 298,
      "प": 299,
      "ब": 300,
      "भ": 301,
      "म": 302,
      "य": 303,
      "र": 304,
      "ल": 305,
      "व": 306,
      "श": 307,
      "ष": 308,
      "स": 309,
      "ह": 310,
      "़": 311,
      "ा": 312,
      "ि": 313,
      "ी": 314,
      "ु": 315,
      "ू": 316,
      "ृ": 317,
      "े": 318,
      "ो": 319,
      "ौ": 320,
      "्": 321,
      "।": 322,
      "ঁ": 323,
      "ং": 324,
      "ঃ": 325,
      "অ": 326,
      "আ": 327,
      "ই": 328,
      "ঈ": 329,
      "উ": 330,
      "ঊ": 331,
      "ঋ": 332,
      "এ": 333,
      "ঐ": 334,
      "ও": 335,
      "ঔ": 336,
      "ক": 337,
      "খ": 338,
      "গ": 339,
      "ঘ": 340,
      "ঙ": 341,
      "চ": 342,
      "ছ": 343,
      "জ": 344,
      "ঝ": 345,
      "ঞ": 346,
      "ট": 347,
      "ঠ": 348,
      "ড": 349,
      "ঢ": 350,
      "ণ": 351,
      "ত": 352,
      "থ": 353,
      "দ": 354,
      "ধ": 355,
      "ন": 356,
      "প": 357,
      "ফ": 358,
      "ব": 359,
      "ভ": 360,
      "ম": 361,
      "য": 362,
      "র": 363,
      "ল": 364,
      "শ": 365,
      "ষ": 366,
      "স": 367,
      "হ": 368,
      "়": 369,
      "া": 370,
      "ি": 371,
      "ী": 372,
      "ু": 373,
      "ূ": 374,
      "ৃ": 375,
      "ে": 376,
      "ৈ": 377,
      "ো": 378,
      "ৌ": 379,
      "্": 380,
      "ৎ": 381,
      "ৗ": 382,
      "০": 383,
      "১": 384,
      "২": 385,
      "৩": 386,
      "৪": 387,
      "৫": 388,
      "৬": 389,
      "৭": 390,
      "৮": 391,
      "৯": 392,
      "ৰ": 393,
      "৳": 394,
      "ਕ": 395,
      "ਗ": 396,
      "ਜ": 397,
      "ਤ": 398,
      "ਧ": 399,
      "ਨ": 400,
      "ਪ": 401,
      "ਬ": 402,
      "ਮ": 403,
      "ਰ": 404,
      "ਲ": 405,
      "ਸ": 406,
      "ਾ": 407,
      "ਿ": 408,
      "ੀ": 409,
      "ੜ": 410,
      "ੰ": 411,
      "ੱ": 412,
      "ଦ": 413,
      "ପ": 414,
      "ଳ": 415,
      "ା": 416,
      "ି": 417,
      "த": 418,
      "ப": 419,
      "ம": 420,
      "ல": 421,
      "ா": 422,
      "ு": 423,
      "்": 424,
      "ಿ": 425,
      "അ": 426,
      "ഖ": 427,
      "ദ": 428,
      "ന": 429,
      "മ": 430,
      "ല": 431,
      "ശ": 432,
      "ാ": 433,
      "ി": 434,
      "ു": 435,
      "ൈ": 436,
      "്": 437,
      "ො": 438,
      "ก": 439,
      "ค": 440,
      "ง": 441,
      "จ": 442,
      "ช": 443,
      "ฎ": 444,
      "ด": 445,
      "ต": 446,
      "ท": 447,
      "ธ": 448,
      "น": 449,
      "บ": 450,
      "ป": 451,
      "พ": 452,
      "ม": 453,
      "ย": 454,
      "ร": 455,
      "ล": 456,
      "ว": 457,
      "ศ": 458,
      "ส": 459,
      "ห": 460,
      "อ": 461,
      "ะ": 462,
      "ั": 463,
      "า": 464,
      "ิ": 465,
      "ี": 466,
      "ุ": 467,
      "ู": 468,
      "เ": 469,
      "โ": 470,
      "็": 471,
      "่": 472,
      "้": 473,
      "์": 474,
      "ํ": 475,
      "་": 476,
      "ག": 477,
      "ས": 478,
      "ཱ": 479,
      "ེ": 480,
      "င": 481,
      "မ": 482,
      "ာ": 483,
      "း": 484,
      "်": 485,
      "ა": 486,
      "ე": 487,
      "ვ": 488,
      "თ": 489,
      "ი": 490,
      "ლ": 491,
      "მ": 492,
      "ნ": 493,
      "ო": 494,
      "რ": 495,
      "ს": 496,
      "ხ": 497,
      "ទ": 498,
      "ន": 499,
      "ម": 500,
      "យ": 501,
      "រ": 502,
      "វ": 503,
      "ី": 504,
      "័": 505,
      "្": 506,
      "ἀ": 507,
      "Ἀ": 508,
      "ἔ": 509,
      "ῳ": 510,
      "▁": 511,
      "一": 512,
      "丁": 513,
      "三": 514,
      "上": 515,
      "下": 516,
      "不": 517,
      "与": 518,
      "专": 519,
      "世": 520,
      "东": 521,
      "两": 522,
      "个": 523,
      "中": 524,
      "为": 525,
      "主": 526,
      "丽": 527,
      "么": 528,
      "义": 529,
      "之": 530,
      "也": 531,
      "乡": 532,
      "书": 533,
      "了": 534,
      "争": 535,
      "事": 536,
      "二": 537,
      "于": 538,
      "云": 539,
      "互": 540,
      "五": 541,
      "井": 542,
      "些": 543,
      "京": 544,
      "人": 545,
      "什": 546,
      "今": 547,
      "他": 548,
      "代": 549,
      "以": 550,
      "们": 551,
      "件": 552,
      "任": 553,
      "众": 554,
      "会": 555,
      "传": 556,
      "伯": 557,
      "但": 558,
      "位": 559,
      "住": 560,
      "何": 561,
      "作": 562,
      "你": 563,
      "保": 564,
      "信": 565,
      "候": 566,
      "值": 567,
      "假": 568,
      "做": 569,
      "傑": 570,
      "像": 571,
      "儿": 572,
      "元": 573,
      "光": 574,
      "入": 575,
      "全": 576,
      "八": 577,
      "公": 578,
      "兰": 579,
      "共": 580,
      "关": 581,
      "养": 582,
      "内": 583,
      "再": 584,
      "写": 585,
      "决": 586,
      "几": 587,
      "出": 588,
      "分": 589,
      "刘": 590,
      "利": 591,
      "到": 592,
      "制": 593,
      "前": 594,
      "劉": 595,
      "力": 596,
      "加": 597,
      "动": 598,
      "努": 599,
      "化": 600,
      "北": 601,
      "区": 602,
      "医": 603,
      "區": 604,
      "十": 605,
      "半": 606,
      "华": 607,
      "南": 608,
      "博": 609,
      "卡": 610,
      "印": 611,
      "原": 612,
      "去": 613,
      "又": 614,
      "友": 615,
      "发": 616,
      "取": 617,
      "口": 618,
      "只": 619,
      "可": 620,
      "台": 621,
      "史": 622,
      "吃": 623,
      "各": 624,
      "合": 625,
      "同": 626,
      "名": 627,
      "后": 628,
      "吴": 629,
      "员": 630,
      "呦": 631,
      "周": 632,
      "命": 633,
      "和": 634,
      "品": 635,
      "哥": 636,
      "唐": 637,
      "商": 638,
      "回": 639,
      "因": 640,
      "困": 641,
      "国": 642,
      "國": 643,
      "在": 644,
      "地": 645,
      "场": 646,
      "城": 647,
      "培": 648,
      "基": 649,
      "場": 650,
      "声": 651,
      "复": 652,
      "外": 653,
      "多": 654,
      "夜": 655,
      "大": 656,
      "天": 657,
      "太": 658,
      "央": 659,
      "女": 660,
      "她": 661,
      "好": 662,
      "如": 663,
      "始": 664,
      "姐": 665,
      "子": 666,
      "字": 667,
      "存": 668,
      "孙": 669,
      "孜": 670,
      "学": 671,
      "學": 672,
      "安": 673,
      "宋": 674,
      "宗": 675,
      "实": 676,
      "家": 677,
      "容": 678,
      "密": 679,
      "寒": 680,
      "对": 681,
      "封": 682,
      "小": 683,
      "少": 684,
      "尔": 685,
      "就": 686,
      "局": 687,
      "展": 688,
      "山": 689,
      "岸": 690,
      "工": 691,
      "已": 692,
      "市": 693,
      "布": 694,
      "师": 695,
      "希": 696,
      "帝": 697,
      "常": 698,
      "平": 699,
      "年": 700,
      "并": 701,
      "应": 702,
      "底": 703,
      "府": 704,
      "度": 705,
      "庭": 706,
      "建": 707,
      "开": 708,
      "当": 709,
      "形": 710,
      "影": 711,
      "待": 712,
      "很": 713,
      "後": 714,
      "得": 715,
      "德": 716,
      "徽": 717,
      "心": 718,
      "必": 719,
      "志": 720,
      "念": 721,
      "怕": 722,
      "思": 723,
      "性": 724,
      "怪": 725,
      "恐": 726,
      "息": 727,
      "情": 728,
      "想": 729,
      "意": 730,
      "愛": 731,
      "感": 732,
      "慕": 733,
      "成": 734,
      "我": 735,
      "房": 736,
      "所": 737,
      "手": 738,
      "才": 739,
      "打": 740,
      "扫": 741,
      "投": 742,
      "报": 743,
      "拉": 744,
      "拜": 745,
      "改": 746,
      "放": 747,
      "政": 748,
      "教": 749,
      "敢": 750,
      "文": 751,
      "断": 752,
      "新": 753,
      "方": 754,
      "施": 755,
      "无": 756,
      "日": 757,
      "早": 758,
      "时": 759,
      "明": 760,
      "易": 761,
      "星": 762,
      "春": 763,
      "是": 764,
      "時": 765,
      "晓": 766,
      "晚": 767,
      "書": 768,
      "月": 769,
      "有": 770,
      "朋": 771,
      "服": 772,
      "望": 773,
      "朝": 774,
      "木": 775,
      "未": 776,
      "本": 777,
      "朱": 778,
      "朴": 779,
      "机": 780,
      "李": 781,
      "杜": 782,
      "来": 783,
      "東": 784,
      "林": 785,
      "果": 786,
      "校": 787,
      "样": 788,
      "格": 789,
      "桑": 790,
      "桥": 791,
      "楚": 792,
      "楼": 793,
      "機": 794,
      "次": 795,
      "欢": 796,
      "歌": 797,
      "止": 798,
      "步": 799,
      "武": 800,
      "死": 801,
      "民": 802,
      "气": 803,
      "水": 804,
      "永": 805,
      "汉": 806,
      "江": 807,
      "没": 808,
      "治": 809,
      "法": 810,
      "泽": 811,
      "活": 812,
      "海": 813,
      "消": 814,
      "深": 815,
      "港": 816,
      "游": 817,
      "湖": 818,
      "濱": 819,
      "火": 820,
      "灰": 821,
      "点": 822,
      "然": 823,
      "爱": 824,
      "牛": 825,
      "物": 826,
      "特": 827,
      "状": 828,
      "猫": 829,
      "王": 830,
      "现": 831,
      "珠": 832,
      "理": 833,
      "生": 834,
      "田": 835,
      "电": 836,
      "界": 837,
      "留": 838,
      "疫": 839,
      "病": 840,
      "白": 841,
      "百": 842,
      "的": 843,
      "目": 844,
      "直": 845,
      "相": 846,
      "看": 847,
      "真": 848,
      "着": 849,
      "知": 850,
      "研": 851,
      "示": 852,
      "社": 853,
      "祖": 854,
      "神": 855,
      "禁": 856,
      "福": 857,
      "离": 858,
      "种": 859,
      "科": 860,
      "秘": 861,
      "称": 862,
      "究": 863,
      "童": 864,
      "等": 865,
      "算": 866,
      "管": 867,
      "绿": 868,
      "罗": 869,
      "罪": 870,
      "羅": 871,
      "美": 872,
      "群": 873,
      "義": 874,
      "老": 875,
      "者": 876,
      "而": 877,
      "聊": 878,
      "肉": 879,
      "育": 880,
      "胡": 881,
      "能": 882,
      "脑": 883,
      "自": 884,
      "至": 885,
      "臺": 886,
      "舞": 887,
      "般": 888,
      "船": 889,
      "良": 890,
      "色": 891,
      "艾": 892,
      "芦": 893,
      "花": 894,
      "芳": 895,
      "苏": 896,
      "英": 897,
      "草": 898,
      "菜": 899,
      "落": 900,
      "蒼": 901,
      "虎": 902,
      "融": 903,
      "行": 904,
      "街": 905,
      "表": 906,
      "被": 907,
      "裔": 908,
      "西": 909,
      "要": 910,
      "视": 911,
      "解": 912,
      "言": 913,
      "話": 914,
      "語": 915,
      "让": 916,
      "记": 917,
      "讲": 918,
      "话": 919,
      "该": 920,
      "说": 921,
      "象": 922,
      "資": 923,
      "赤": 924,
      "赵": 925,
      "起": 926,
      "跟": 927,
      "路": 928,
      "身": 929,
      "軍": 930,
      "边": 931,
      "过": 932,
      "运": 933,
      "还": 934,
      "这": 935,
      "进": 936,
      "连": 937,
      "通": 938,
      "道": 939,
      "那": 940,
      "郎": 941,
      "部": 942,
      "都": 943,
      "里": 944,
      "重": 945,
      "野": 946,
      "量": 947,
      "金": 948,
      "钱": 949,
      "長": 950,
      "长": 951,
      "閱": 952,
      "门": 953,
      "问": 954,
      "间": 955,
      "际": 956,
      "限": 957,
      "院": 958,
      "随": 959,
      "难": 960,
      "雁": 961,
      "集": 962,
      "青": 963,
      "面": 964,
      "革": 965,
      "韓": 966,
      "韩": 967,
      "音": 968,
      "题": 969,
      "飞": 970,
      "食": 971,
      "香": 972,
      "骨": 973,
      "高": 974,
      "鬼": 975,
      "黄": 976,
      "黑": 977,
      "龍": 978,
      "龙": 979,
      "관": 980,
      "교": 981,
      "구": 982,
      "국": 983,
      "녀": 984,
      "다": 985,
      "대": 986,
      "동": 987,
      "리": 988,
      "북": 989,
      "상": 990,
      "서": 991,
      "성": 992,
      "소": 993,
      "수": 994,
      "시": 995,
      "울": 996,
      "원": 997,
      "이": 998,
      "잔": 999,
      "제": 1000,
      "창": 1001,
      "치": 1002,
      "학": 1003,
      "해": 1004,
      "화": 1005,
      "￼": 1006,
      "য়": 1007,
      "▁ক": 1008,
      "ার": 1009,
      "▁স": 1010,
      "▁প": 1011,
      "▁ব": 1012,
      "ের": 1013,
      "্র": 1014,
      "্য": 1015,
      "▁এ": 1016,
      "▁আ": 1017,
      "▁কর": 1018,
      "ান": 1019,
      "▁ত": 1020,
      "্ত": 1021,
      "▁ম": 1022,
      "▁হ": 1023,
      "▁ন": 1024,
      "▁অ": 1025,
      "▁য": 1026,
      "▁দ": 1027,
      "▁প্র": 1028,
      "েন": 1029,
      "িক": 1030,
      "য়ে": 1031,
      "▁জ": 1032,
      "িত": 1033,
      "্ব": 1034,
      "কে": 1035,
      "িন": 1036,
      "াল": 1037,
      "র্": 1038,
      "িল": 1039,
      "বে": 1040,
      "রা": 1041,
      "াদ": 1042,
      "▁শ": 1043,
      "টি": 1044,
      "▁বি": 1045,
      "ায়": 1046,
      "তে": 1047,
      "▁উ": 1048,
      "▁গ": 1049,
      "▁আম": 1050,
      "্ট": 1051,
      "ছে": 1052,
      "▁এক": 1053,
      "াম": 1054,
      "▁চ": 1055,
      "▁করে": 1056,
      "্ষ": 1057,
      "লে": 1058,
      "▁ভ": 1059,
      "ছিল": 1060,
      "▁বা": 1061,
      "▁পর": 1062,
      "▁ও": 1063,
      "▁নি": 1064,
      "▁সম": 1065,
      "▁এব": 1066,
      "তি": 1067,
      "▁এবং": 1068,
      "্যা": 1069,
      "ড়": 1070,
      "▁১": 1071,
      "ন্": 1072,
      "াই": 1073,
      "ুল": 1074,
      "াস": 1075,
      "াক": 1076,
      "ন্য": 1077,
      "▁থ": 1078,
      "▁যে": 1079,
      "▁র": 1080,
      "▁ল": 1081,
      "ুর": 1082,
      "াদের": 1083,
      "্থ": 1084,
      "▁দে": 1085,
      "য়া": 1086,
      "িস": 1087,
      "▁(": 1088,
      "টা": 1089,
      "▁তা": 1090,
      "্প": 1091,
      "▁তার": 1092,
      "▁ই": 1093,
      "াত": 1094,
      "দের": 1095,
      "▁খ": 1096,
      "াব": 1097,
      "▁ফ": 1098,
      "▁করা": 1099,
      "▁সে": 1100,
      "ক্ত": 1101,
      "▁অন": 1102,
      "▁এই": 1103,
      "ির": 1104,
      "ক্ষ": 1105,
      "▁না": 1106,
      "েশ": 1107,
      "েন।": 1108,
      "▁২": 1109,
      "িনি": 1110,
      "িয়ে": 1111,
      "াহ": 1112,
      "▁জন্য": 1113,
      "▁হয়": 1114,
      "ীয়": 1115,
      "না": 1116,
      "কার": 1117,
      "ঙ্": 1118,
      "▁রা": 1119,
      "▁কা": 1120,
      "ভা": 1121,
      "ধ্য": 1122,
      "জন": 1123,
      "▁হয়ে": 1124,
      "▁ব্য": 1125,
      "েল": 1126,
      "দ্": 1127,
      "েকে": 1128,
      "ুন": 1129,
      "গুল": 1130,
      "োন": 1131,
      "▁কি": 1132,
      "▁আর": 1133,
      "▁পরি": 1134,
      "▁পার": 1135,
      "▁\"": 1136,
      "্ম": 1137,
      "চ্": 1138,
      "▁ধ": 1139,
      "োগ": 1140,
      "য়ার": 1141,
      "▁থেকে": 1142,
      "ন্ত": 1143,
      "ষ্ট": 1144,
      "ষ্": 1145,
      "ঙ্গ": 1146,
      "শ্ব": 1147,
      "খন": 1148,
      "স্ত": 1149,
      "▁সং": 1150,
      "▁উপ": 1151,
      "াপ": 1152,
      "বি": 1153,
      "▁তিনি": 1154,
      "বার": 1155,
      "ছে।": 1156,
      "নি": 1157,
      "▁সাল": 1158,
      "▁যা": 1159,
      "স্থ": 1160,
      "দ্ধ": 1161,
      "▁ছিল": 1162,
      "নে": 1163,
      "নের": 1164,
      "্ল": 1165,
      "্ড": 1166,
      "▁প্রতি": 1167,
      "তা": 1168,
      "▁সা": 1169,
      "বা": 1170,
      "▁করতে": 1171,
      "রে": 1172,
      "ারা": 1173,
      "গুলো": 1174,
      "ভাবে": 1175,
      "▁ড": 1176,
      "▁একটি": 1177,
      "োম": 1178,
      "ত্ত": 1179,
      "..": 1180,
      "ানে": 1181,
      "মি": 1182,
      "▁আপ": 1183,
      "▁এর": 1184,
      "▁দেখ": 1185,
      "▁আমি": 1186,
      "▁ট": 1187,
      "▁১৯": 1188,
      "ীর": 1189,
      "▁ছ": 1190,
      "িতে": 1191,
      "▁ঘ": 1192,
      "▁তাদের": 1193,
      "▁অনু": 1194,
      "র্ত": 1195,
      "▁কোন": 1196,
      "্ন": 1197,
      "▁আমাদের": 1198,
      "ারণ": 1199,
      "েক": 1200,
      "র্ব": 1201,
      "িয়": 1202,
      "▁অব": 1203,
      "ৃত": 1204,
      "▁-": 1205,
      "▁করার": 1206,
      "্ক": 1207,
      "িশ": 1208,
      "্রে": 1209,
      "ন্দ": 1210,
      "▁বল": 1211,
      "ুক্ত": 1212,
      "▁২০": 1213,
      "▁পা": 1214,
      "িন্ত": 1215,
      "চিত": 1216,
      "রের": 1217,
      "াকে": 1218,
      "মন": 1219,
      "▁মধ্য": 1220,
      "▁ব্যব": 1221,
      "ষ্ঠ": 1222,
      "িহ": 1223,
      "▁আমরা": 1224,
      "▁মা": 1225,
      "রণ": 1226,
      "দি": 1227,
      "▁স্ব": 1228,
      "কা": 1229,
      "্স": 1230,
      "ন্ধ": 1231,
      "ওয়া": 1232,
      "িকে": 1233,
      "িয়া": 1234,
      "▁বিষ": 1235,
      "▁তাঁ": 1236,
      "▁হয়।": 1237,
      "ুরু": 1238,
      "গ্র": 1239,
      "্দ": 1240,
      "▁নে": 1241,
      "ছু": 1242,
      "থে": 1243,
      "্চ": 1244,
      "মা": 1245,
      "ান্ত": 1246,
      "েন,": 1247,
      "মে": 1248,
      "▁মধ্যে": 1249,
      "▁কাজ": 1250,
      "র্ণ": 1251,
      "্যান": 1252,
      "▁হবে": 1253,
      "োর": 1254,
      "যোগ": 1255,
      "▁হিস": 1256,
      "প্র": 1257,
      "▁সু": 1258,
      "▁সালে": 1259,
      "েষ": 1260,
      "▁কিন্ত": 1261,
      "থা": 1262,
      "▁আস": 1263,
      "▁বলে": 1264,
      "▁তারা": 1265,
      "▁সম্প": 1266,
      "হার": 1267,
      "▁কিন্তু": 1268,
      "▁দু": 1269,
      "জ্": 1270,
      "ীন": 1271,
      "▁ক্ষ": 1272,
      "▁অন্য": 1273,
      "▁জান": 1274,
      "▁থাক": 1275,
      "▁যিহ": 1276,
      "▁কিছু": 1277,
      "মান": 1278,
      "▁বিশ্ব": 1279,
      "▁আমার": 1280,
      "ঙ্গে": 1281,
      "ড়া": 1282,
      "োক": 1283,
      "▁সেই": 1284,
      "▁অভ": 1285,
      "ীব": 1286,
      "▁গ্র": 1287,
      "নার": 1288,
      "ংশ": 1289,
      "ওয়ার": 1290,
      "▁মান": 1291,
      "ত্য": 1292,
      "পর": 1293,
      "▁করেছিল": 1294,
      "োল": 1295,
      "▁সময়": 1296,
      "▁একজন": 1297,
      "▁দিয়ে": 1298,
      "দেশ": 1299,
      "▁নিয়ে": 1300,
      "▁মু": 1301,
      "▁নাম": 1302,
      "▁৩": 1303,
      "াজ": 1304,
      "চার": 1305,
      "র্থ": 1306,
      "িক্ষ": 1307,
      "েত": 1308,
      "ংল": 1309,
      "▁দ্ব": 1310,
      "▁যিহো": 1311,
      "▁সব": 1312,
      "েম": 1313,
      "েয়ে": 1314,
      "▁জন": 1315,
      "▁তু": 1316,
      "তো": 1317,
      "িব": 1318,
      "ঈশ্ব": 1319,
      "▁নির্": 1320,
      "▁করে।": 1321,
      "▁সাথে": 1322,
      "জ্ঞ": 1323,
      "খানে": 1324,
      "▁কে": 1325,
      "▁তাঁর": 1326,
      "িপ": 1327,
      "াত্র": 1328,
      "ানের": 1329,
      "▁সঙ্গে": 1330,
      "ক্র": 1331,
      "▁আল": 1332,
      "েবে": 1333,
      "▁না।": 1334,
      "▁হল": 1335,
      "্যাল": 1336,
      "▁রাজ": 1337,
      "▁স্থ": 1338,
      "িম": 1339,
      "▁ভা": 1340,
      "▁ঈশ্ব": 1341,
      "ছি": 1342,
      "ড়ে": 1343,
      "সে": 1344,
      "▁তোম": 1345,
      "লের": 1346,
      "▁করেন।": 1347,
      "▁ব্যা": 1348,
      "▁যে,": 1349,
      "▁কার": 1350,
      "ক্তি": 1351,
      "িকা": 1352,
      "▁বাংল": 1353,
      "▁একটা": 1354,
      "ুদ্ধ": 1355,
      "▁কী": 1356,
      "▁সর": 1357,
      "▁এটা": 1358,
      "বর্ত": 1359,
      "ধান": 1360,
      "▁যায়": 1361,
      "▁বেশ": 1362,
      "টার": 1363,
      ":১": 1364,
      "▁পারে": 1365,
      "▁যদি": 1366,
      "▁হিসেবে": 1367,
      "ত্র": 1368,
      "...": 1369,
      "ূল": 1370,
      "▁বিষয়": 1371,
      "থম": 1372,
      "ন্ত্র": 1373,
      "ূর্ণ": 1374,
      "▁অধ": 1375,
      "রি": 1376,
      "ীত": 1377,
      "গে": 1378,
      "▁বছ": 1379,
      "স্ট": 1380,
      "০০": 1381,
      "বাদ": 1382,
      "▁খু": 1383,
      "▁হয়েছিল": 1384,
      "▁'": 1385,
      "▁সাহ": 1386,
      "▁লা": 1387,
      "▁অনেক": 1388,
      "কাশ": 1389,
      "▁কারণ": 1390,
      "ছেন": 1391,
      "▁সাম": 1392,
      "▁৪": 1393,
      "▁কথা": 1394,
      "▁রয়ে": 1395,
      "▁ব্যবহার": 1396,
      "▁।": 1397,
      "▁(১": 1398,
      "▁সহ": 1399,
      "▁ভার": 1400,
      "▁এমন": 1401,
      "▁জীব": 1402,
      "ছে,": 1403,
      "▁কেন": 1404,
      "খে": 1405,
      "িকার": 1406,
      "জে": 1407,
      "▁বাই": 1408,
      "টে": 1409,
      "সম": 1410,
      "▁২০১": 1411,
      "গত": 1412,
      "য়ের": 1413,
      "▁যখন": 1414,
      "▁আপনি": 1415,
      "▁আই": 1416,
      "▁চল": 1417,
      "লেখ": 1418,
      "র্শ": 1419,
      "র্ম": 1420,
      "▁৫": 1421,
      "োধ": 1422,
      "াদেশ": 1423,
      "ল্প": 1424,
      "▁সালের": 1425,
      "▁শিক্ষ": 1426,
      "িং": 1427,
      "োট": 1428,
      "▁বিশ": 1429,
      "োপ": 1430,
      "তার": 1431,
      "▁প্রথম": 1432,
      "্ভ": 1433,
      "্যের": 1434,
      "ুষ": 1435,
      "▁প্রদ": 1436,
      "ুম": 1437,
      "▁মনে": 1438,
      "িস্ট": 1439,
      "ারে": 1440,
      "ুক": 1441,
      "▁বে": 1442,
      "চ্ছে": 1443,
      "াধ": 1444,
      "ূপ": 1445,
      "▁উত্ত": 1446,
      "প্ত": 1447,
      "ি,": 1448,
      "টির": 1449,
      "িন্ন": 1450,
      "তিক": 1451,
      "▁প্রকাশ": 1452,
      "▁করেন": 1453,
      "ঞ্চ": 1454,
      "▁পরিচ": 1455,
      "▁দেশ": 1456,
      "কারী": 1457,
      "িজ": 1458,
      "▁ক্র": 1459,
      "▁মহ": 1460,
      "▁ভাল": 1461,
      "ন্ন": 1462,
      "▁শুরু": 1463,
      "সং": 1464,
      "ৎস": 1465,
      "ত্ব": 1466,
      "▁ব্যক্তি": 1467,
      "াচ": 1468,
      "ূর্ব": 1469,
      "▁খ্র": 1470,
      "▁হতে": 1471,
      "▁এখন": 1472,
      "▁উদ": 1473,
      "▁অবস্থ": 1474,
      "ন্ড": 1475,
      "▁নয়": 1476,
      "▁তুমি": 1477,
      "ি।": 1478,
      "▁বাংলাদেশ": 1479,
      "▁কাছে": 1480,
      "▁পর্য": 1481,
      "▁মার": 1482,
      "ণ্ড": 1483,
      "▁কো": 1484,
      "▁এটি": 1485,
      "▁লোক": 1486,
      "হণ": 1487,
      "▁মাধ্য": 1488,
      "য়ো": 1489,
      "াকা": 1490,
      "কের": 1491,
      "▁তখন": 1492,
      "▁সরকার": 1493,
      "▁প্রশ": 1494,
      "তির": 1495,
      "▁রাখ": 1496,
      "▁পৃ": 1497,
      "ষণ": 1498,
      "▁মে": 1499,
      "িড": 1500,
      "ায": 1501,
      "াঁ": 1502,
      "▁অপ": 1503,
      "দ্র": 1504,
      "▁বছর": 1505,
      "▁দ্বারা": 1506,
      "▁অংশ": 1507,
      "িও": 1508,
      "▁৬": 1509,
      "▁বার": 1510,
      "▁থাকে": 1511,
      "▁বাইবে": 1512,
      "েন্ট": 1513,
      "বে।": 1514,
      "▁ভারত": 1515,
      "ক্ষা": 1516,
      "াক্ষ": 1517,
      "লা": 1518,
      "▁ঈশ্বরের": 1519,
      "ঠিক": 1520,
      "্জ": 1521,
      "▁কর্ম": 1522,
      "▁ইউ": 1523,
      "ভাব": 1524,
      "ার্থ": 1525,
      "ানো": 1526,
      "▁আপনার": 1527,
      "-এ": 1528,
      "▁বিভ": 1529,
      "▁সাহায": 1530,
      "্যার": 1531,
      "▁যিহোবার": 1532,
      "ছেন।": 1533,
      "▁মন": 1534,
      "খ্যা": 1535,
      "▁মানুষ": 1536,
      "র্ক": 1537,
      "েলা": 1538,
      "▁দিন": 1539,
      "▁২০০": 1540,
      "স্ক": 1541,
      "ীদের": 1542,
      "▁সি": 1543,
      "মাণ": 1544,
      "▁করুন": 1545,
      "▁লি": 1546,
      "কাল": 1547,
      "▁সাহায্য": 1548,
      "স্": 1549,
      "োহ": 1550,
      "▁রে": 1551,
      "্বর": 1552,
      "াতে": 1553,
      "ত্ম": 1554,
      "▁তাকে": 1555,
      "ুত": 1556,
      "▁শহ": 1557,
      "▁এল": 1558,
      "▁বির": 1559,
      "▁সদ": 1560,
      "▁ব্র": 1561,
      "▁তাই": 1562,
      "েরা": 1563,
      "িত্র": 1564,
      "▁মাধ্যমে": 1565,
      "চ্ছ": 1566,
      "চনা": 1567,
      "▁সম্ব": 1568,
      "▁পুর": 1569,
      "কি": 1570,
      "াড়া": 1571,
      "▁অথ": 1572,
      "▁কোনো": 1573,
      "▁অর্থ": 1574,
      "▁তাহ": 1575,
      "ছিলেন": 1576,
      "▁শেষ": 1577,
      "▁প্রায়": 1578,
      "▁নিজ": 1579,
      "ক্ষে": 1580,
      "তুন": 1581,
      "ন্ধে": 1582,
      "যুক্ত": 1583,
      "▁মূল": 1584,
      "শি": 1585,
      "▁পদ": 1586,
      "▁হয়েছে।": 1587,
      "সল": 1588,
      "স্য": 1589,
      "কল": 1590,
      "া,": 1591,
      "▁উল": 1592,
      "▁যোগ": 1593,
      "▁হবে।": 1594,
      "▁ধর": 1595,
      "▁নির্ব": 1596,
      "▁তৈ": 1597,
      "▁ক্ষেত": 1598,
      "য়ন": 1599,
      "▁ভাষ": 1600,
      "চ্চ": 1601,
      "পূর্ণ": 1602,
      "ন্ম": 1603,
      "▁কম": 1604,
      "▁নতুন": 1605,
      "ষ্ট্র": 1606,
      "▁পর্যন্ত": 1607,
      "▁[": 1608,
      "ধারণ": 1609,
      "▁সত্য": 1610,
      "বেশ": 1611,
      "▁প্রতিষ্ঠ": 1612,
      "োব": 1613,
      "▁যিহোবা": 1614,
      "জা": 1615,
      "▁অথবা": 1616,
      "▁খুব": 1617,
      "িদ": 1618,
      "ঞ্জ": 1619,
      "▁প্রধান": 1620,
      "▁বিভিন্ন": 1621,
      "ান্য": 1622,
      "োর্": 1623,
      "েস": 1624,
      "িত্ব": 1625,
      "▁পূর্ব": 1626,
      "▁বৃ": 1627,
      "▁অর্": 1628,
      "য়োজন": 1629,
      "িতা": 1630,
      "▁স্ট": 1631,
      "ানি": 1632,
      "▁উপর": 1633,
      "▁নিয়": 1634,
      "▁শু": 1635,
      "▁তোমার": 1636,
      "ীতে": 1637,
      "বল": 1638,
      "▁আরও": 1639,
      "ানা": 1640,
      "▁পাল": 1641,
      "র্গ": 1642,
      "সা": 1643,
      "বিদ": 1644,
      "▁সম্বন্ধে": 1645,
      "▁দেখা": 1646,
      "▁অভি": 1647,
      "্যান্ড": 1648,
      "▁৭": 1649,
      "।\"": 1650,
      "গুলি": 1651,
      "-১": 1652,
      "ন্ট": 1653,
      "▁উদ্": 1654,
      "▁বিষয়ে": 1655,
      "),": 1656,
      "▁আশ": 1657,
      "▁ভূ": 1658,
      "▁দেওয়া": 1659,
      "▁বন্ধ": 1660,
      "ষ্টি": 1661,
      "▁শাস": 1662,
      "▁মি": 1663,
      "▁যারা": 1664,
      "▁বিশেষ": 1665,
      "চে": 1666,
      "▁সাক্ষ": 1667,
      "▁আন": 1668,
      "▁ঘট": 1669,
      "▁জীবন": 1670,
      "াণ": 1671,
      "াড়": 1672,
      "স্থা": 1673,
      "▁হলে": 1674,
      "িস্ত": 1675,
      "▁১৮": 1676,
      "▁ঠিক": 1677,
      "রিক": 1678,
      "দিন": 1679,
      "▁দেয়": 1680,
      "▁বেশি": 1681,
      "▁প্রত": 1682,
      "চিত্র": 1683,
      "গুলোর": 1684,
      "েই": 1685,
      "ভূ": 1686,
      "্দ্র": 1687,
      ":২": 1688,
      "▁পরিচাল": 1689,
      "▁ছিল।": 1690,
      "▁সর্ব": 1691,
      "▁হয়েছে": 1692,
      "▁লক্ষ": 1693,
      "▁হচ্ছে": 1694,
      "▁দায়": 1695,
      "▁আগে": 1696,
      "▁লাভ": 1697,
      "▁চে": 1698,
      "শ্চ": 1699,
      "▁বিশ্বাস": 1700,
      "▁আছে": 1701,
      "সি": 1702,
      "বাহ": 1703,
      "ীল": 1704,
      "▁আমাকে": 1705,
      "▁মতো": 1706,
      "▁স্থান": 1707,
      "▁১০": 1708,
      "▁গুরু": 1709,
      "▁দৃ": 1710,
      "▁পৌ": 1711,
      "▁স্ক": 1712,
      "াতীয়": 1713,
      "িশু": 1714,
      "▁বাইবেল": 1715,
      "▁ব্যাপ": 1716,
      "▁গে": 1717,
      "▁বু": 1718,
      "▁মাস": 1719,
      "▁হন": 1720,
      "▁৮": 1721,
      "ভাগ": 1722,
      "▁অন্যান্য": 1723,
      "▁(১৯": 1724,
      "ে,": 1725,
      "▁ক্ষেত্রে": 1726,
      "▁যুক্ত": 1727,
      "▁নেই": 1728,
      "▁ঢ": 1729,
      "▁পুন": 1730,
      "সব": 1731,
      "▁গিয়ে": 1732,
      "▁হার": 1733,
      "▁খ্রিস্ট": 1734,
      "▁প্রয়োজন": 1735,
      "▁আব": 1736,
      "ব্য": 1737,
      "র্জ": 1738,
      "▁তবে": 1739,
      "▁দিকে": 1740,
      "▁ব্ল": 1741,
      "▁বিদ": 1742,
      "শন": 1743,
      "▁ধর্ম": 1744,
      "▁পারে।": 1745,
      "▁পরিবর্ত": 1746,
      "▁চাল": 1747,
      "্রম": 1748,
      "ীতি": 1749,
      "▁মত": 1750,
      "▁মৃত": 1751,
      "▁না,": 1752,
      "শ্য": 1753,
      "্লেখ": 1754,
      "▁উৎস": 1755,
      "▁প্রক": 1756,
      "▁সম্ভ": 1757,
      "ষ্টা": 1758,
      "ৈতিক": 1759,
      "▁সার": 1760,
      "▁উল্লেখ": 1761,
      "▁বড়": 1762,
      "▁পরিবার": 1763,
      "▁কল": 1764,
      "াইল": 1765,
      "▁লেখ": 1766,
      "াবে": 1767,
      "▁উত্তর": 1768,
      "▁অস": 1769,
      "▁কর্ত": 1770,
      "িয়ার": 1771,
      "▁৯": 1772,
      "ারী": 1773,
      "▁সম্ম": 1774,
      "ারের": 1775,
      "য়েক": 1776,
      "▁গু": 1777,
      "ায়ী": 1778,
      "▁করে,": 1779,
      "▁অনুস": 1780,
      "▁অন্ত": 1781,
      "্যাপ": 1782,
      "বেন": 1783,
      "তিহ": 1784,
      "▁ঈশ্বর": 1785,
      "▁হই": 1786,
      "▁কখন": 1787,
      "▁বৈ": 1788,
      "গ্রহ": 1789,
      "▁এসে": 1790,
      "-এর": 1791,
      "▁পড়": 1792,
      "▁হয়,": 1793,
      "▁কার্য": 1794,
      "▁আদ": 1795,
      "▁কয়েক": 1796,
      "▁সাধারণ": 1797,
      "▁দক্ষ": 1798,
      "▁পু": 1799,
      "িউ": 1800,
      "▁তৈরি": 1801,
      "▁গ্রহণ": 1802,
      "▁এখানে": 1803,
      "▁ধরে": 1804,
      "▁ঐ": 1805,
      "▁ছে": 1806,
      "কম": 1807,
      "িল্প": 1808,
      "রী": 1809,
      "▁স্প": 1810,
      "জি": 1811,
      "্রা": 1812,
      "ো।": 1813,
      "▁চলচ্": 1814,
      "্যে": 1815,
      "▁দল": 1816,
      "▁১২": 1817,
      "▁প্রদান": 1818,
      "▁আগ": 1819,
      "্যু": 1820,
      "▁আইন": 1821,
      "ছিলেন।": 1822,
      "▁শিক্ষা": 1823,
      "▁যেমন": 1824,
      "▁১৫": 1825,
      "▁পৃথ": 1826,
      "▁পাঠ": 1827,
      "ীম": 1828,
      "▁হয়েছিল।": 1829,
      "িত্ত": 1830,
      "▁অধ্য": 1831,
      "পুর": 1832,
      "সের": 1833,
      "▁শত": 1834,
      "▁কীভাবে": 1835,
      "▁আজ": 1836,
      "িট": 1837,
      "ব্র": 1838,
      "বর্তী": 1839,
      "্যাম": 1840,
      "▁জাতীয়": 1841,
      "▁ভাই": 1842,
      "▁তথ": 1843,
      "▁রয়েছে।": 1844,
      "▁যায়।": 1845,
      "▁তাহলে": 1846,
      "▁একই": 1847,
      "▁গুরুত্ব": 1848,
      "▁আত্ম": 1849,
      "াপন": 1850,
      "▁সময়ে": 1851,
      "্যাক": 1852,
      "ক্ষণ": 1853,
      "ামী": 1854,
      "ওয়": 1855,
      "▁ফে": 1856,
      "গণ": 1857,
      "▁বলা": 1858,
      "▁পাক": 1859,
      "ৃতি": 1860,
      "▁চার": 1861,
      "ঁচ": 1862,
      "ীক": 1863,
      "▁বাক": 1864,
      "ফল": 1865,
      "▁সদস্য": 1866,
      "ুদ্ধে": 1867,
      "ুই": 1868,
      "ছিল।": 1869,
      "▁পরে": 1870,
      "্ত্র": 1871,
      "▁সমস্ত": 1872,
      "▁ওপর": 1873,
      "▁\"আ": 1874,
      "▁হওয়ার": 1875,
      "টের": 1876,
      "▁তাল": 1877,
      "▁উন্ন": 1878,
      "▁চেয়ে": 1879,
      "▁শুধ": 1880,
      "ান।": 1881,
      "▁১১": 1882,
      "▁বাড়": 1883,
      "▁ছবি": 1884,
      "▁যার": 1885,
      "েলার": 1886,
      "▁(২": 1887,
      "াপ্ত": 1888,
      "▁কেউ": 1889,
      "▁দিতে": 1890,
      "্যালয়": 1891,
      "▁বর্ত": 1892,
      "▁লো": 1893,
      "▁১৯৯": 1894,
      "▁রয়েছে": 1895,
      "াইন": 1896,
      "ভার": 1897,
      "▁দূ": 1898,
      "িয়ান": 1899,
      "ন্ত্রণ": 1900,
      "েশন": 1901,
      "▁উঠ": 1902,
      "▁আধ": 1903,
      "▁পে": 1904,
      "▁অফ": 1905,
      "▁ঘো": 1906,
      "▁করত": 1907,
      "এস": 1908,
      "▁মুক্ত": 1909,
      "▁সকল": 1910,
      "র্শন": 1911,
      "▁যেতে": 1912,
      "▁নামে": 1913,
      "▁ধরনের": 1914,
      "▁কারণে": 1915,
      "োস": 1916,
      "িণ": 1917,
      "▁...": 1918,
      "জার": 1919,
      "▁জা": 1920,
      "▁যেখানে": 1921,
      "স্কার": 1922,
      "▁চিন্ত": 1923,
      "ুট": 1924,
      "▁করেছিলেন।": 1925,
      "▁বয়": 1926,
      "▁পড়ে": 1927,
      "েম্বর": 1928,
      "▁ফলে": 1929,
      "▁কেন্দ্র": 1930,
      "▁চাই": 1931,
      "▁তো": 1932,
      "▁আলো": 1933,
      "▁অভিন": 1934,
      "▁করি": 1935,
      "যোগ্য": 1936,
      "ুগ": 1937,
      "▁বহ": 1938,
      "থি": 1939,
      "▁রাষ্ট্র": 1940,
      "▁হিসাবে": 1941,
      "ানোর": 1942,
      "ক্রম": 1943,
      "▁তিন": 1944,
      "ত্ত্ব": 1945,
      "▁ছিলেন": 1946,
      "▁সৃ": 1947,
      "িখ": 1948,
      "শু": 1949,
      "▁ক্ল": 1950,
      "কর": 1951,
      "▁কর্তৃ": 1952,
      "র্য": 1953,
      "▁উচ্চ": 1954,
      "▁প্রচার": 1955,
      "▁চলচ্চিত্র": 1956,
      "▁মিল": 1957,
      "▁নিজে": 1958,
      "▁ঝ": 1959,
      "▁গণ": 1960,
      "▁জন্ম": 1961,
      "▁পি": 1962,
      "▁পাওয়া": 1963,
      "োদ": 1964,
      "ষ্য": 1965,
      "▁পারি": 1966,
      "▁রাজন": 1967,
      "▁থাকে।": 1968,
      "▁আন্ত": 1969,
      "তিহাস": 1970,
      "িলা": 1971,
      "▁সেখানে": 1972,
      "▁পো": 1973,
      "▁চলে": 1974,
      "▁টি": 1975,
      "▁যে-": 1976,
      "▁দুই": 1977,
      "▁উদ্দেশ": 1978,
      "গার": 1979,
      "ুব": 1980,
      "ায়।": 1981,
      "▁বুঝ": 1982,
      "▁মাল": 1983,
      "▁১৩": 1984,
      "▁১৭": 1985,
      "▁সম্ভব": 1986,
      "▁বিপ": 1987,
      "ুপ": 1988,
      "▁১৪": 1989,
      "▁পৃথিব": 1990,
      "য়েল": 1991,
      "▁পেয়ে": 1992,
      "▁ট্র": 1993,
      "▁উচিত": 1994,
      "▁তথ্য": 1995,
      "▁কমি": 1996,
      "ূহ": 1997,
      "াধীন": 1998,
      "▁করেছে।": 1999,
      "▁পরা": 2000,
      "▁গঠ": 2001,
      "্যাস": 2002,
      "▁বিশ্ববিদ": 2003,
      "▁যেন": 2004,
      "▁ছোট": 2005,
      "▁বাহ": 2006,
      "▁দক্ষিণ": 2007,
      "ুয়ার": 2008,
      "▁বই": 2009,
      "▁দর": 2010,
      "িতীয়": 2011,
      "▁ক্ষম": 2012,
      "ষণা": 2013,
      "্ধ": 2014,
      "দ্ব": 2015,
      "▁হয়তো": 2016,
      "▁সেটা": 2017,
      "▁পৃষ্ঠ": 2018,
      "▁মো": 2019,
      "▁উই": 2020,
      "▁লে": 2021,
      "▁অনুষ্ঠ": 2022,
      "▁সমস": 2023,
      "▁ফির": 2024,
      "▁অঞ্চ": 2025,
      "তম": 2026,
      "▁সন্ত": 2027,
      "দী": 2028,
      "▁ছাড়া": 2029,
      "ড়িয়ে": 2030,
      "▁১৯৭": 2031,
      "▁বো": 2032,
      "▁ব্যক্ত": 2033,
      "াট": 2034,
      "▁পাকিস্ত": 2035,
      "াউ": 2036,
      "▁প্রাচ": 2037,
      "▁সবচ": 2038,
      "▁প্রস্ত": 2039,
      "িন্দ": 2040,
      "▁ডি": 2041,
      "▁তুল": 2042,
      "র্ভ": 2043,
      "াকার": 2044,
      "▁কাল": 2045,
      "ুরুষ": 2046,
      "িত।": 2047,
      "াতা": 2048,
      "স্ব": 2049,
      "ো,": 2050,
      "▁প্রচ": 2051,
      "▁ছিলেন।": 2052,
      "▁দেখে": 2053,
      "ম্ব": 2054,
      "▁১৬": 2055,
      "▁চেষ্টা": 2056,
      "▁হওয়া": 2057,
      "▁ভারতের": 2058,
      "▁যুদ্ধ": 2059,
      "▁পরিস": 2060,
      "েন্স": 2061,
      "▁বিরুদ্ধে": 2062,
      "▁পরিচিত": 2063,
      "▁সম্পর্": 2064,
      "▁শিল্প": 2065,
      "ত্যা": 2066,
      "দার": 2067,
      "লি": 2068,
      "▁করেছিলেন": 2069,
      "ংস": 2070,
      "ান,": 2071,
      "▁প্রের": 2072,
      "▁সবচেয়ে": 2073,
      "ধা": 2074,
      "িটি": 2075,
      "▁ব্যবস্থা": 2076,
      "▁গুরুত্বপূর্ণ": 2077,
      "▁মিশ": 2078,
      "▁করব": 2079,
      "▁নির্বাচ": 2080,
      "▁যিনি": 2081,
      "▁দায়িত্ব": 2082,
      "▁করেছে": 2083,
      "্টি": 2084,
      ":৩": 2085,
      "▁ভাব": 2086,
      "র্ষ": 2087,
      "▁তুলে": 2088,
      "▁হন।": 2089,
      "াহরণ": 2090,
      "বাস": 2091,
      "▁আহ": 2092,
      "▁আবার": 2093,
      "ী,": 2094,
      "ও,": 2095,
      "▁প্রার্থ": 2096,
      "▁উপস্থ": 2097,
      "করণ": 2098,
      "ে।": 2099,
      "ছি।": 2100,
      "্চিত": 2101,
      "▁পরী": 2102,
      "▁সম্পর্ক": 2103,
      "▁মুখ": 2104,
      "▁উদাহরণ": 2105,
      "ছিলাম": 2106,
      "নিক": 2107,
      "▁মাঝ": 2108,
      "▁কাছ": 2109,
      "▁বিবে": 2110,
      "োজ": 2111,
      "▁দ্বিতীয়": 2112,
      "াদি": 2113,
      "রূপ": 2114,
      "▁বলতে": 2115,
      "▁যী": 2116,
      "▁দি": 2117,
      "▁সুযোগ": 2118,
      "ীরা": 2119,
      "▁কু": 2120,
      "▁পশ্চ": 2121,
      "▁চিত্র": 2122,
      "▁উৎ": 2123,
      "▁শব": 2124,
      "াইট": 2125,
      "ীষ্ট": 2126,
      "▁বিল": 2127,
      "▁সিদ্ধ": 2128,
      "গ্রহণ": 2129,
      "▁বাস": 2130,
      "াতিক": 2131,
      "▁লোকে": 2132,
      "ঙ্ক": 2133,
      "▁১৯৮": 2134,
      "▁সমর্থ": 2135,
      "▁সংগ": 2136,
      "েনে": 2137,
      "▁আছে।": 2138,
      "োভ": 2139,
      "▁করেছেন": 2140,
      "গুলির": 2141,
      "▁গ্রাম": 2142,
      "▁আফ": 2143,
      "মার": 2144,
      "▁প্রভাব": 2145,
      "ৃহ": 2146,
      "দে": 2147,
      "▁করবে": 2148,
      "▁পিত": 2149,
      "▁নিজের": 2150,
      "ুখ": 2151,
      "▁যিশু": 2152,
      "িনী": 2153,
      "▁পারেন": 2154,
      "▁কলে": 2155,
      "▁স্ম": 2156,
      "▁কত": 2157,
      "▁কৃ": 2158,
      "▁বিক": 2159,
      "▁সম্পর্কে": 2160,
      "▁যদিও": 2161,
      "▁বৃদ্ধ": 2162,
      "শে": 2163,
      "শীল": 2164,
      "জ্ঞান": 2165,
      "িনা": 2166,
      "াদা": 2167,
      "▁নয়।": 2168,
      "র্ঘ": 2169,
      "ণ্ডল": 2170,
      "▁দশ": 2171,
      "▁বর্ণ": 2172,
      "▁চিন্তা": 2173,
      "বন্ধ": 2174,
      "▁আপন": 2175,
      "▁স্বাধীন": 2176,
      "▁শুন": 2177,
      "▁হচ্": 2178,
      "▁ভূম": 2179,
      "▁মনো": 2180,
      "াব্দ": 2181,
      "ছেন,": 2182,
      "নাকে": 2183,
      "▁বিচার": 2184,
      "▁ইন": 2185,
      "▁প্রত্য": 2186,
      "▁ধারণ": 2187,
      "নায়": 2188,
      "▁পালন": 2189,
      "ায়ের": 2190,
      "▁সম্প্র": 2191,
      "ার্ম": 2192,
      "▁লোকেদের": 2193,
      "ালে": 2194,
      "▁দেখতে": 2195,
      "▁নিক": 2196,
      "▁হ্যা": 2197,
      "্তা": 2198,
      "▁জায়": 2199,
      "▁মার্ক": 2200,
      "▁প্রেম": 2201,
      "▁খেল": 2202,
      "▁শ্রে": 2203,
      "▁শে": 2204,
      ")।": 2205,
      "াও": 2206,
      "দান": 2207,
      "▁খ্রীষ্ট": 2208,
      "▁পুরুষ": 2209,
      "মাত্র": 2210,
      "মিত": 2211,
      "▁মানুষের": 2212,
      "লিক": 2213,
      "▁লাগ": 2214,
      "▁গো": 2215,
      "গর": 2216,
      "▁দেশের": 2217,
      "▁পরিবর্তন": 2218,
      "ালী": 2219,
      "নি।": 2220,
      "▁জি": 2221,
      "ূলক": 2222,
      "▁পুরস্কার": 2223,
      "জিত": 2224,
      "▁যত": 2225,
      "-২": 2226,
      "▁ভিত্ত": 2227,
      "▁হাজ": 2228,
      "▁আন্তর্জ": 2229,
      "▁নিশ": 2230,
      "ুণ": 2231,
      "▁প্রাচীন": 2232,
      "▁অবশ্য": 2233,
      "▁বের": 2234,
      "▁জল": 2235,
      "ারি": 2236,
      "▁বর": 2237,
      "▁ইতিহাস": 2238,
      "▁নির্দেশ": 2239,
      "▁ডিস": 2240,
      "বান": 2241,
      "▁বিভাগ": 2242,
      "▁অধিকার": 2243,
      "▁কিন্তু,": 2244,
      "▁সাং": 2245,
      "▁নাগ": 2246,
      "-প": 2247,
      "্লে": 2248,
      "▁বাংলাদেশের": 2249,
      "▁শহর": 2250,
      "▁সূ": 2251,
      "▁করেছেন।": 2252,
      "▁দেওয়ার": 2253,
      "রাধ": 2254,
      "▁শব্দ": 2255,
      "▁আন্তর্জাতিক": 2256,
      "বেদ": 2257,
      "শেষ": 2258,
      "▁মন্দ": 2259,
      "আই": 2260,
      "▁রেখে": 2261,
      "▁করেন,": 2262,
      "▁দ্র": 2263,
      "▁একে": 2264,
      "▁অ্যা": 2265,
      "ংরে": 2266,
      "কর্ত": 2267,
      "খান": 2268,
      "▁ভাষায়": 2269,
      "▁শুধু": 2270,
      "▁হাস": 2271,
      "▁কেবল": 2272,
      "ান্ড": 2273,
      "পাত": 2274,
      "াস্থ": 2275,
      "োষ": 2276,
      "কদের": 2277,
      "▁ইউনি": 2278,
      "তন": 2279,
      "মানে": 2280,
      "▁ভালো": 2281,
      "▁সংস্ক": 2282,
      "▁গান": 2283,
      "েরে": 2284,
      "ভি": 2285,
      "▁মুসল": 2286,
      "ক্রান্ত": 2287,
      "▁মৃত্যু": 2288,
      "▁(য": 2289,
      "ন্টার": 2290,
      "গা": 2291,
      "▁অক": 2292,
      "ীপ": 2293,
      "▁অনুম": 2294,
      "▁মূল্য": 2295,
      "▁লিখে": 2296,
      "▁শান্ত": 2297,
      "▁সংখ্যা": 2298,
      "▁পত্র": 2299,
      "▁মণ্ডল": 2300,
      "▁নিউ": 2301,
      "োহন": 2302,
      "০০০": 2303,
      "্থিত": 2304,
      "▁খুঁ": 2305,
      "▁নিজেদের": 2306,
      "▁প্রা": 2307,
      "ছাড়া": 2308,
      "▁সেবা": 2309,
      "▁যাতে": 2310,
      "টাই": 2311,
      "▁বাবা": 2312,
      "▁সমস্যা": 2313,
      "▁যুক্তরা": 2314,
      "তের": 2315,
      "োর্ট": 2316,
      "▁নিশ্চিত": 2317,
      "বিষ্য": 2318,
      "▁প্রশ্ন": 2319,
      "▁আমের": 2320,
      "▁ভারতীয়": 2321,
      "ড়ি": 2322,
      "▁জনসং": 2323,
      "▁স্থানীয়": 2324,
      "▁মাত্র": 2325,
      "▁ঘটে": 2326,
      "াবার": 2327,
      "যায়ী": 2328,
      "▁সিদ্ধান্ত": 2329,
      "ন্দর": 2330,
      "▁কোম": 2331,
      "▁কলেজ": 2332,
      "িডিও": 2333,
      "থায়": 2334,
      "ালা": 2335,
      "▁ক্রিকে": 2336,
      "▁করেছিল।": 2337,
      "▁১৯৬": 2338,
      "▁ভবিষ্য": 2339,
      "▁তোমাকে": 2340,
      "▁উৎপ": 2341,
      "▁ফিরে": 2342,
      "▁কাজে": 2343,
      "▁সমাজ": 2344,
      "▁ছাত্র": 2345,
      "▁ওয়ে": 2346,
      "▁উপজ": 2347,
      "▁প্রকাশিত": 2348,
      "▁থাকা": 2349,
      "ডি": 2350,
      "▁গড়ে": 2351,
      "▁তালিকা": 2352,
      "পা": 2353,
      "স্প": 2354,
      "▁বছরের": 2355,
      "পু": 2356,
      "▁দাঁ": 2357,
      "গুলোতে": 2358,
      "ুরি": 2359,
      "পতি": 2360,
      "েট": 2361,
      "▁ব্যবস্থ": 2362,
      "জনক": 2363,
      "লার": 2364,
      "▁কঠ": 2365,
      "ধার": 2366,
      "▁ভিডিও": 2367,
      "টিকে": 2368,
      "▁বিব": 2369,
      "ছিলেন,": 2370,
      "গুলোকে": 2371,
      "সর": 2372,
      "▁ঘটনা": 2373,
      "সমূহ": 2374,
      "▁শক্ত": 2375,
      "▁কর্তৃক": 2376,
      "▁বস্ত": 2377,
      "্যাগ": 2378,
      "▁নারী": 2379,
      "াক্ত": 2380,
      "▁ছেলে": 2381,
      "▁গবে": 2382,
      "▁আরো": 2383,
      "্যাট": 2384,
      "▁ইসল": 2385,
      "▁আক": 2386,
      "োলা": 2387,
      "▁পান": 2388,
      "▁এত": 2389,
      "▁চর": 2390,
      "ী।": 2391,
      "ন,": 2392,
      "▁শ্র": 2393,
      "তু": 2394,
      "ংক": 2395,
      "▁আনন্দ": 2396,
      "▁রাজনৈতিক": 2397,
      "▁(ই": 2398,
      "ুদ্র": 2399,
      "▁বন্ধু": 2400,
      "▁প্রদর্শন": 2401,
      "▁অর্জন": 2402,
      "▁জেলা": 2403,
      "▁বাক্য": 2404,
      "▁নির্মাণ": 2405,
      "▁এস": 2406,
      "ামের": 2407,
      "্রি": 2408,
      "সময়": 2409,
      "ালো": 2410,
      "▁করুন।": 2411,
      "▁যৌ": 2412,
      "▁নিরা": 2413,
      "▁পুল": 2414,
      "িয়ন": 2415,
      "▁মৌ": 2416,
      "▁সংবাদ": 2417,
      "াবি": 2418,
      "▁স্ত্র": 2419,
      "্ঞ": 2420,
      "▁সেন": 2421,
      "সূ": 2422,
      "▁জ্ঞ": 2423,
      "▁অর্থন": 2424,
      "▁ক্ষমতা": 2425,
      "পি": 2426,
      "▁অগ্র": 2427,
      "▁,": 2428,
      "▁বোঝ": 2429,
      "▁দলের": 2430,
      "শা": 2431,
      "▁সৃষ্টি": 2432,
      "▁১৯৫": 2433,
      "▁দী": 2434,
      "োয়া": 2435,
      "▁শি": 2436,
      "ায়ক": 2437,
      "▁বুঝতে": 2438,
      "▁পথ": 2439,
      "▁ফেল": 2440,
      "▁অনুযায়ী": 2441,
      "▁কৃষ": 2442,
      "▁বর্তমানে": 2443,
      "▁যিশ": 2444,
      "৪)": 2445,
      "▁পরবর্তী": 2446,
      "▁সন্তান": 2447,
      "▁মানব": 2448,
      "▁আলোচনা": 2449,
      "▁কন": 2450,
      "▁এমনকি": 2451,
      "বর": 2452,
      "▁মারা": 2453,
      "▁রাজ্যের": 2454,
      "▁আপনাকে": 2455,
      "▁ইস": 2456,
      "▁হতো": 2457,
      "▁ব্যাপারে": 2458,
      "ীকার": 2459,
      "▁১৯৪": 2460,
      "োড": 2461,
      "িকভাবে": 2462,
      "▁নেই।": 2463,
      "জীব": 2464,
      "খা": 2465,
      "ায়,": 2466,
      "▁রোম": 2467,
      "এম": 2468,
      "▁দেব": 2469,
      "ালি": 2470,
      "▁থাকতে": 2471,
      "▁গভ": 2472,
      "▁প্রাণ": 2473,
      "দিকে": 2474,
      "▁প্রেরিত": 2475,
      "▁সপ্ত": 2476,
      "ত্তয়া": 2477,
      "▁ফল": 2478,
      "▁ফিল": 2479,
      "▁রূপ": 2480,
      "োনা": 2481,
      "▁ধার": 2482,
      "▁ভাগ": 2483,
      "ঢ়": 2484,
      "ফি": 2485,
      "▁সরকারের": 2486,
      "৩)": 2487,
      "▁পরিস্থিত": 2488,
      "▁নাগরিক": 2489,
      "ামা": 2490,
      "▁ইউর": 2491,
      "▁নার": 2492,
      "▁যীশু": 2493,
      "সার": 2494,
      "ষ্কার": 2495,
      "ৃদ": 2496,
      "াসা": 2497,
      "▁মিনি": 2498,
      "▁আন্দ": 2499,
      "টু": 2500,
      "▁তাদেরকে": 2501,
      "▁শিশু": 2502,
      "▁রাখা": 2503,
      "ক্রিয়": 2504,
      "ছিলেন:": 2505,
      "▁প্রমাণ": 2506,
      "▁কখনো": 2507,
      "▁কোম্প": 2508,
      "▁গা": 2509,
      "▁পুলিশ": 2510,
      "র্ন": 2511,
      "্যাত্ম": 2512,
      "▁দুঃ": 2513,
      "▁বিন": 2514,
      "▁ঘোষণা": 2515,
      "ল্পনা": 2516,
      "াকায়": 2517,
      "▁পরিবারের": 2518,
      "▁ভুল": 2519,
      "▁ধ্ব": 2520,
      "▁করবে।": 2521,
      "▁যাচ্": 2522,
      "▁স্কুল": 2523,
      "ক,": 2524,
      "▁শহরের": 2525,
      "ুলে": 2526,
      "▁কাউ": 2527,
      "▁পদ্ধ": 2528,
      "▁অধ্যয়ন": 2529,
      "য়োগ": 2530,
      "▁হাত": 2531,
      "▁খুবই": 2532,
      "▁দেয়।": 2533,
      "▁সভা": 2534,
      "▁এম": 2535,
      "▁নিতে": 2536,
      "▁চো": 2537,
      "▁প্ল": 2538,
      "▁কিং": 2539,
      "▁ভয়": 2540,
      "▁এছাড়া": 2541,
      "▁নিম": 2542,
      "িহ্ন": 2543,
      "▁ভাষা": 2544,
      "াস্থ্য": 2545,
      "▁পরিণ": 2546,
      "▁দিল": 2547,
      "▁উপস্থিত": 2548,
      "▁নিরাপ": 2549,
      "ছি,": 2550,
      "িক্ত": 2551,
      "▁সম্পাদ": 2552,
      "শিষ্ট": 2553,
      "▁২৪": 2554,
      "▁আধ্যাত্ম": 2555,
      "জ্ঞা": 2556,
      "▁হাজার": 2557,
      "গো": 2558,
      "▁মাঝে": 2559,
      "▁দিক": 2560,
      "ক্ষেপ": 2561,
      "▁গৃহ": 2562,
      "▁বাস্ত": 2563,
      "ন্স": 2564,
      "▁প্রার্থনা": 2565,
      "টিতে": 2566,
      "রায়": 2567,
      "াম।": 2568,
      "▁মুক্তি": 2569,
      "▁আরেক": 2570,
      "▁আসলে": 2571,
      "▁বাইবেলের": 2572,
      "▁ত্র": 2573,
      "স্তক": 2574,
      "৫)": 2575,
      "▁ডে": 2576,
      "▁প্রবেশ": 2577,
      "▁ব্যবহ": 2578,
      "াসের": 2579,
      "োর্ড": 2580,
      "▁ঢাকা": 2581,
      "িষ্ট": 2582,
      "ান্তর": 2583,
      "▁ইন্টার": 2584,
      "▁পূর্ণ": 2585,
      "▁নেত": 2586,
      "▁কাজের": 2587,
      "▁চা": 2588,
      "▁মার্কিন": 2589,
      "▁জেলার": 2590,
      "▁বলেন": 2591,
      "কালে": 2592,
      "বু": 2593,
      "▁পশ্চিম": 2594,
      "ভূত": 2595,
      "ম্প": 2596,
      "▁অল": 2597,
      "র্ভুক্ত": 2598,
      "ুস": 2599,
      "াচিত": 2600,
      "পত্র": 2601,
      "▁পরিক": 2602,
      "▁অন্তর্ভুক্ত": 2603,
      "াম,": 2604,
      "▁ফেলে": 2605,
      "▁ওঠ": 2606,
      "্রিক": 2607,
      "বে,": 2608,
      "▁সঙ্গ": 2609,
      "▁এরপর": 2610,
      "মর্শ": 2611,
      "ধি": 2612,
      "তায়": 2613,
      "▁(ম": 2614,
      "▁বিমান": 2615,
      "▁লাই": 2616,
      "▁লেখা": 2617,
      "াজিক": 2618,
      "▁আয়": 2619,
      "▁বাংলা": 2620,
      "▁খান": 2621,
      "▁বিবেচনা": 2622,
      "▁আশা": 2623,
      "▁পরীক্ষা": 2624,
      "▁বিরোধ": 2625,
      "▁হলো": 2626,
      "্বল": 2627,
      "▁লক্ষ্য": 2628,
      "▁রোগ": 2629,
      "▁উদ্দেশ্য": 2630,
      "▁জয়": 2631,
      "▁জীবনের": 2632,
      "▁তাঁকে": 2633,
      "▁প্রতিষ্ঠান": 2634,
      "াৎ": 2635,
      "▁সংগঠ": 2636,
      "সহ": 2637,
      "▁সৌ": 2638,
      "▁২১": 2639,
      "০১": 2640,
      "ালের": 2641,
      "▁সংর": 2642,
      "▁২৫": 2643,
      "▁গ্রে": 2644,
      "রণের": 2645,
      "-ই": 2646,
      "▁সবাই": 2647,
      "িভ": 2648,
      "▁পরামর্শ": 2649,
      "▁যাওয়ার": 2650,
      "▁ব্যক্তিগত": 2651,
      "▁এন": 2652,
      "র্ড": 2653,
      "▁বিস্ত": 2654,
      "ক্রমণ": 2655,
      "মের": 2656,
      "▁রাজ্য": 2657,
      "ুজ": 2658,
      "▁গত": 2659,
      "▁অনুসারে": 2660,
      "ক্স": 2661,
      "কৃত": 2662,
      "০.": 2663,
      "▁নির": 2664,
      "▁বিশ্ববিদ্যালয়": 2665,
      "%,": 2666,
      "▁অফিস": 2667,
      "▁২২": 2668,
      "▁রাজা": 2669,
      "হীন": 2670,
      "ৃত্ব": 2671,
      "▁মস": 2672,
      "▁করছে": 2673,
      "▁বৃদ্ধি": 2674,
      "ীকে": 2675,
      "▁নির্ভ": 2676,
      "▁তে": 2677,
      "দা": 2678,
      "পার": 2679,
      "▁টুই": 2680,
      "ম্যান": 2681,
      "▁নিকট": 2682,
      "▁ছিল,": 2683,
      "▁অত": 2684,
      "▁মেয়ে": 2685,
      "য়াল": 2686,
      "আর": 2687,
      "িত্য": 2688,
      "▁সারা": 2689,
      "▁স্ত": 2690,
      "▁সত্যি": 2691,
      "ঘাত": 2692,
      "বিত্র": 2693,
      "েক্ষা": 2694,
      "▁গোল": 2695,
      "খ্য": 2696,
      "িফ": 2697,
      "▁মার্চ": 2698,
      "িকি": 2699,
      "▁জাতি": 2700,
      "ামে": 2701,
      "▁নির্বাচিত": 2702,
      "▁বার্তা": 2703,
      "▁সীম": 2704,
      "বের": 2705,
      "▁দুঃখ": 2706,
      "দিষ্ট": 2707,
      "▁মহিলা": 2708,
      "▁হয়েছে,": 2709,
      "▁\"স": 2710,
      "াযোগ": 2711,
      "ন্থ": 2712,
      "▁পৌল": 2713,
      "ত।": 2714,
      "▁লোকেরা": 2715,
      "ুয়ারি": 2716,
      "▁জন্যে": 2717,
      "▁অবস্থান": 2718,
      "গান": 2719,
      "▁দেয়া": 2720,
      "্লাহ": 2721,
      "▁সময়ের": 2722,
      "▁দরকার": 2723,
      "▁হে": 2724,
      "▁অন্যদের": 2725,
      ",০০০": 2726,
      "▁অপরাধ": 2727,
      "াত্ত": 2728,
      "ূর্ত": 2729,
      "▁সঠিক": 2730,
      "▁খ্রিস্টান": 2731,
      "▁বান": 2732,
      "▁ইংরে": 2733,
      "▁নির্বাচন": 2734,
      "▁রাস্ত": 2735,
      "▁ধর্মীয়": 2736,
      "▁টেল": 2737,
      "▁আন্দোল": 2738,
      "▁ফ্র": 2739,
      "▁পরিবেশ": 2740,
      "ৃতিক": 2741,
      "▁থাকার": 2742,
      "▁কখনও": 2743,
      "▁সির": 2744,
      "▁তোমাদের": 2745,
      "▁দীর্ঘ": 2746,
      "▁ইউরোপ": 2747,
      "াবাহ": 2748,
      "▁বিদ্যালয়": 2749,
      "▁দুটি": 2750,
      "▁রিপ": 2751,
      "▁দেশে": 2752,
      "ানী": 2753,
      "▁শাসন": 2754,
      "▁দেখুন": 2755,
      "▁দুর": 2756,
      "▁শক্তি": 2757,
      "▁উভ": 2758,
      "▁সামাজিক": 2759,
      "▁পরিচালিত": 2760,
      "▁দান": 2761,
      "▁আট": 2762,
      "▁প্রাথম": 2763,
      "▁পরিমাণ": 2764,
      "রাস": 2765,
      "▁সৈ": 2766,
      "▁জিন": 2767,
      "▁বস": 2768,
      "▁অবস্থিত": 2769,
      "▁ভে": 2770,
      "▁বন্দ": 2771,
      "িটিশ": 2772,
      "▁টাকা": 2773,
      "পক্ষ": 2774,
      "▁জু": 2775,
      "▁পক্ষে": 2776,
      "▁জিজ্ঞ": 2777,
      "▁শী": 2778,
      "▁আধ্যাত্মিক": 2779,
      "▁ঠ": 2780,
      "ম্ভ": 2781,
      "▁সরকারি": 2782,
      "▁অনুষ্ঠিত": 2783,
      "▁সামনে": 2784,
      "▁দাস": 2785,
      "▁ব্যাখ্যা": 2786,
      "▁খুঁজে": 2787,
      "গের": 2788,
      "▁খাদ": 2789,
      "৬)": 2790,
      "▁উল্লেখযোগ্য": 2791,
      "৭)": 2792,
      "▁সপ্তাহ": 2793,
      "▁যাওয়া": 2794,
      "ন্ত্রী": 2795,
      "▁বয়স": 2796,
      "▁?": 2797,
      "▁ম্যা": 2798,
      "▁করল": 2799,
      "করা": 2800,
      "▁\"এ": 2801,
      "▁অবশ্যই": 2802,
      "িন্দু": 2803,
      "▁উঠে": 2804,
      "▁জানা": 2805,
      "▁চিহ্ন": 2806,
      "▁আগ্রহ": 2807,
      "▁উৎসাহ": 2808,
      "▁ব্রিটিশ": 2809,
      "▁প্রত্যা": 2810,
      "ীনে": 2811,
      "▁নম": 2812,
      "বেদন": 2813,
      "ময়": 2814,
      "োঁ": 2815,
      "▁ভাবে": 2816,
      "▁ফুট": 2817,
      "িপি": 2818,
      "▁বর্তমান": 2819,
      "▁রহ": 2820,
      "▁প্রকল্প": 2821,
      "▁সাক্ষি": 2822,
      "▁মোট": 2823,
      "▁ব্যর্থ": 2824,
      "▁নীতি": 2825,
      "▁সুর": 2826,
      "▁গীত": 2827,
      "▁তারপর": 2828,
      "▁জুন": 2829,
      "াড়ি": 2830,
      "▁প্রত্যেক": 2831,
      "▁সম্পূর্ণ": 2832,
      "▁স্বাস্থ্য": 2833,
      "▁হ্যাঁ": 2834,
      "তর": 2835,
      "▁পাঁচ": 2836,
      "▁সম্মান": 2837,
      "প্রিয়": 2838,
      "▁আক্রমণ": 2839,
      "▁বাধ্য": 2840,
      "▁জুল": 2841,
      "▁তর": 2842,
      "▁নিয়ন্ত্রণ": 2843,
      "▁মর": 2844,
      "▁পৃষ্ঠার": 2845,
      "▁এতে": 2846,
      "দু": 2847,
      "ান্স": 2848,
      "▁হা": 2849,
      "▁অপর": 2850,
      "▁করছে।": 2851,
      "▁যাদের": 2852,
      "ন্দ্র": 2853,
      "রকম": 2854,
      "▁অতি": 2855,
      "▁জে": 2856,
      "▁স্পষ্ট": 2857,
      "চক": 2858,
      "ট্ট": 2859,
      "টো": 2860,
      "▁এলাকা": 2861,
      "▁সমর্থন": 2862,
      "▁শ্রেণ": 2863,
      "৮)": 2864,
      "াপ্র": 2865,
      "▁নির্ভর": 2866,
      "▁পৌঁ": 2867,
      "▁কলক": 2868,
      "ষ্ণ": 2869,
      "▁রক্ষা": 2870,
      "▁প্রকৃত": 2871,
      "▁শতাব্দ": 2872,
      "▁বাস্তব": 2873,
      "▁মাসে": 2874,
      "▁পবিত্র": 2875,
      "▁ইচ্ছ": 2876,
      "▁করলে": 2877,
      "▁মুসলিম": 2878,
      "য়ান": 2879,
      "স্বর": 2880,
      "▁কর্মকর্ত": 2881,
      "▁তোমরা": 2882,
      "▁যাই": 2883,
      "প্ট": 2884,
      "▁ধ্বংস": 2885,
      "সঙ্গে": 2886,
      "▁সংশ": 2887,
      "▁ব্যক্তিদের": 2888,
      "প্রিল": 2889,
      "▁পরিচালনা": 2890,
      "▁প্রাপ্ত": 2891,
      "▁ক্যা": 2892,
      "টন": 2893,
      "▁লিখ": 2894,
      "▁উদ্য": 2895,
      "▁যায়,": 2896,
      "▁মন্দির": 2897,
      "্যাম্প": 2898,
      "▁৩০": 2899,
      "ছিল,": 2900,
      "ত্তি": 2901,
      "▁জগ": 2902,
      "▁(প্র": 2903,
      "▁অস্ত": 2904,
      "▁প্রতিযোগ": 2905,
      "স্ট্র": 2906,
      "▁দ্রুত": 2907,
      "ৌশ": 2908,
      "▁চি": 2909,
      ":৪": 2910,
      "াম্ম": 2911,
      "ত,": 2912,
      "িকিৎস": 2913,
      "এন": 2914,
      "▁হবে,": 2915,
      "▁২৩": 2916,
      "জাত": 2917,
      "▁যোগাযোগ": 2918,
      "▁হাই": 2919,
      "▁ব্যবহৃত": 2920,
      "▁ইস্রা": 2921,
      "▁আমাদেরকে": 2922,
      "-ম": 2923,
      "বস": 2924,
      "▁কঠিন": 2925,
      "▁করি।": 2926,
      "▁একা": 2927,
      "ুঁ": 2928,
      "▁পারেন।": 2929,
      "িনে": 2930,
      "▁হাতে": 2931,
      "জের": 2932,
      "▁কিভাবে": 2933,
      "▁আচ": 2934,
      "▁বাঁ": 2935,
      "▁উক্ত": 2936,
      "▁যাবে": 2937,
      "▁নিষ": 2938,
      "▁ল্যা": 2939,
      "্ডার": 2940,
      "▁অনুর": 2941,
      "▁স্থাপন": 2942,
      "▁ব্যক্তির": 2943,
      "▁বক্ত": 2944,
      "▁পাশ": 2945,
      "▁বিশ্ববিদ্যাল": 2946,
      "▁বিবাহ": 2947,
      "ডার": 2948,
      "▁বাণ": 2949,
      "▁এপ্রিল": 2950,
      "▁নামক": 2951,
      "▁চাক": 2952,
      "ুদ": 2953,
      "▁জো": 2954,
      "▁শ্রম": 2955,
      "▁দৃষ্টি": 2956,
      "▁ওয়ার": 2957,
      "▁মুহ": 2958,
      "▁সংস": 2959,
      "৯)": 2960,
      "▁গুল": 2961,
      "বিল": 2962,
      "েক্স": 2963,
      "▁পাপ": 2964,
      "▁অভিনয়": 2965,
      "▁রক্ত": 2966,
      "▁হৃদ": 2967,
      "▁উৎপাদ": 2968,
      "▁চুক্ত": 2969,
      "▁আছে,": 2970,
      "▁যুক্তরাষ্ট্র": 2971,
      "▁টে": 2972,
      "▁জাহ": 2973,
      "ায়ন": 2974,
      "▁গেল": 2975,
      "ন্তব্য": 2976,
      "▁সাই": 2977,
      "য়ত": 2978,
      "▁বর্ণনা": 2979,
      "▁নিজেকে": 2980,
      "ত্ত্বে": 2981,
      "▁ক্রিকেট": 2982,
      "▁যাত্র": 2983,
      "িনীর": 2984,
      "▁এসব": 2985,
      "▁ওই": 2986,
      "▁ফাইল": 2987,
      "▁পাই": 2988,
      "্যুর": 2989,
      "▁সর্বো": 2990,
      "▁পারব": 2991,
      "▁চান": 2992,
      "▁ছেড়ে": 2993,
      "চি": 2994,
      "▁অল্প": 2995,
      "১)": 2996,
      "▁সাব": 2997,
      "েতু": 2998,
      "▁মিনিট": 2999,
      "▁রাখতে": 3000,
      "▁প্রশিক্ষ": 3001,
      "▁পেরে": 3002,
      "তাব": 3003,
      "▁উপল": 3004,
      "▁ইসলাম": 3005,
      "▁ধারণা": 3006,
      "▁ওয়া": 3007,
      "র্ধ": 3008,
      "হা": 3009,
      "ুটি": 3010,
      "▁প্রাথমিক": 3011,
      "▁চাপ": 3012,
      "▁সংগ্রহ": 3013,
      "বী": 3014,
      "▁দৃঢ়": 3015,
      "▁পরিণত": 3016,
      "▁মাদ": 3017,
      "▁১৯৩": 3018,
      "▁শিখ": 3019,
      "▁প্রচে": 3020,
      "ক্ষম": 3021,
      "খ্যার": 3022,
      "▁উপাস": 3023,
      "ট্র": 3024,
      "▁বলল": 3025,
      "ইল": 3026,
      "▁উন্নয়ন": 3027,
      "▁জানতে": 3028,
      "▁নেওয়া": 3029,
      "▁প্রতিনি": 3030,
      "▁নদী": 3031,
      "▁পরিষ": 3032,
      "গল": 3033,
      "▁হত্যা": 3034,
      "▁বংশ": 3035,
      "▁পরিচর": 3036,
      "▁অংশগ্রহণ": 3037,
      "▁পেশ": 3038,
      "▁\"য": 3039,
      "▁যোহন": 3040,
      "িকান": 3041,
      "▁(গ": 3042,
      "▁পড়া": 3043,
      "সংহ": 3044,
      "▁প্রশাস": 3045,
      "▁খার": 3046,
      "২)": 3047,
      "▁নাট": 3048,
      "▁সাধারণত": 3049,
      "▁প্রভ": 3050,
      "▁চিকিৎস": 3051,
      "টিউ": 3052,
      "▁করবেন": 3053,
      "▁শাহ": 3054,
      "▁নভ": 3055,
      "▁উদ্ব": 3056,
      "▁বৃহ": 3057,
      "▁#": 3058,
      "▁জ্ঞান": 3059,
      "▁বাদ": 3060,
      "▁পল": 3061,
      "কোন": 3062,
      "▁তাই,": 3063,
      "▁সক": 3064,
      "▁অক্ট": 3065,
      "শিয়া": 3066,
      "▁উত্তম": 3067,
      "▁সেগুলো": 3068,
      "▁শা": 3069,
      "▁পোস্ট": 3070,
      "▁করো": 3071,
      "▁সত": 3072,
      "কর্ম": 3073,
      "-ব": 3074,
      "িসি": 3075,
      "রাজ": 3076,
      "ুমাত্র": 3077,
      "▁রেল": 3078,
      "▁দা": 3079,
      "জায়": 3080,
      "▁করি,": 3081,
      "▁বাইরে": 3082,
      "▁গভীর": 3083,
      "হেতু": 3084,
      "▁পাব": 3085,
      "▁শেখ": 3086,
      "▁দ্য": 3087,
      "▁ক্ষতি": 3088,
      "▁ন্য": 3089,
      "▁জড়": 3090,
      "▁দূর": 3091,
      "▁ইত্য": 3092,
      "▁হাম": 3093,
      "-আ": 3094,
      "▁সম্ভবত": 3095,
      "▁নয়,": 3096,
      "▁গঠন": 3097,
      "▁অনেকে": 3098,
      "▁শাস্ত্র": 3099,
      "▁.": 3100,
      "▁জানিয়ে": 3101,
      "▁পারে,": 3102,
      "▁স্মরণ": 3103,
      "▁এলাকায়": 3104,
      "০)": 3105,
      "▁বিবরণ": 3106,
      "▁ব্যাপক": 3107,
      "▁অভিযোগ": 3108,
      "▁বাল": 3109,
      "▁ডিসেম্বর": 3110,
      "▁ভিন্ন": 3111,
      "▁রয়েছে,": 3112,
      "▁অধিক": 3113,
      "▁মিথ": 3114,
      "▁ভূমিকা": 3115,
      "▁করেছিলেন,": 3116,
      "▁নির্দিষ্ট": 3117,
      "জিদ": 3118,
      "▁থাকে,": 3119,
      "▁কোথায়": 3120,
      "লী": 3121,
      "▁কথ": 3122,
      "াস্ট": 3123,
      "▁ব্লগার": 3124,
      "▁জোর": 3125,
      "▁(ক": 3126,
      "▁একটু": 3127,
      "▁অন্যতম": 3128,
      "▁অত্য": 3129,
      "▁অক্টোব": 3130,
      "▁প্রথ": 3131,
      "▁সার্ভ": 3132,
      "-স": 3133,
      "েনের": 3134,
      "ন্দে": 3135,
      "ীরে": 3136,
      "▁বরং": 3137,
      "▁স্থাপ": 3138,
      "▁\"ত": 3139,
      "সংহিতা": 3140,
      "▁সংক্রান্ত": 3141,
      "▁উপজেলা": 3142,
      "নী": 3143,
      "▁কাঠ": 3144,
      "▁জাপ": 3145,
      "েক্ট": 3146,
      "য়নের": 3147,
      "▁ব্লগ": 3148,
      "জয়": 3149,
      "▁পর্ব": 3150,
      "বহ": 3151,
      "▁উপরে": 3152,
      "রাই": 3153,
      "▁করিয়া": 3154,
      "▁দেন।": 3155,
      "দ্য": 3156,
      "▁যিশুর": 3157,
      "ওয়ে": 3158,
      "েক্ষ": 3159,
      "স্বরূপ": 3160,
      "র্ষণ": 3161,
      "ড়াই": 3162,
      "পূর্ব": 3163,
      "দ্দ": 3164,
      "▁গুণ": 3165,
      "▁৩:১": 3166,
      "▁এখনও": 3167,
      "▁এভাবে": 3168,
      "▁দেখিয়ে": 3169,
      "▁পরিকল্পনা": 3170,
      "▁সত্ত্বে": 3171,
      "▁সচ": 3172,
      "▁সেপ্ট": 3173,
      "▁বিষয়টা": 3174,
      "ুনিক": 3175,
      "ই,": 3176,
      "▁পূর্বে": 3177,
      "ূক": 3178,
      "▁২০১১": 3179,
      "িয়াম": 3180,
      "▁জনপ্রিয়": 3181,
      "হত": 3182,
      "সন": 3183,
      "▁খারাপ": 3184,
      "▁যেটা": 3185,
      "রাহ": 3186,
      "▁শুধুমাত্র": 3187,
      "▁পাকিস্তান": 3188,
      "▁কর্তৃপক্ষ": 3189,
      "▁অভিজ্ঞ": 3190,
      "▁কাম": 3191,
      "▁পুনর": 3192,
      "▁ফেব্র": 3193,
      "▁জুলাই": 3194,
      "িখে": 3195,
      "▁লী": 3196,
      "▁প্রতিক": 3197,
      "বিশ্ব": 3198,
      "▁বিজ্ঞ": 3199,
      "িটার": 3200,
      "গণের": 3201,
      "বন": 3202,
      "৯.": 3203,
      "▁গল্প": 3204,
      "▁সামরিক": 3205,
      "▁মাই": 3206,
      "▁প্রদেশ": 3207,
      "▁ইর": 3208,
      "িজ্য": 3209,
      "▁১৯২": 3210,
      "▁মৃত্যুর": 3211,
      "িকায়": 3212,
      "▁@": 3213,
      "▁প্রয়োজনীয়": 3214,
      "▁মন্তব্য": 3215,
      "▁জায়গ": 3216,
      "▁তারিখে": 3217,
      "▁বিত": 3218,
      "▁ব্যাংক": 3219,
      "গ্ন": 3220,
      "▁খে": 3221,
      "▁সবসময়": 3222,
      "▁অধীনে": 3223,
      "▁ইন্ড": 3224,
      "▁খাদ্য": 3225,
      "▁\"অ": 3226,
      "▁সফল": 3227,
      "▁গ্ল": 3228,
      "▁প্রণ": 3229,
      "▁মনোযোগ": 3230,
      "▁সুবি": 3231,
      "▁বাত": 3232,
      "▁দৈ": 3233,
      "▁আইনের": 3234,
      "▁সংরক্ষণ": 3235,
      "▁বদ": 3236,
      "▁চালু": 3237,
      "▁পেতে": 3238,
      "▁পুত্র": 3239,
      "▁নিরাপত্ত": 3240,
      "ক্ষিত": 3241,
      "▁হচ্ছে।": 3242,
      "▁অঞ্চল": 3243,
      "▁যেহেতু": 3244,
      "▁ব্যাপার": 3245,
      "▁পিতর": 3246,
      "-৩": 3247,
      "▁শহরে": 3248,
      "▁হয়েছিল,": 3249,
      "শ্র": 3250,
      "▁কৃত": 3251,
      "সমা": 3252,
      "গিয়ে": 3253,
      "▁যৌন": 3254,
      "▁কয়েকটি": 3255,
      "বৃ": 3256,
      "ক।": 3257,
      "▁একমাত্র": 3258,
      "▁শির": 3259,
      "ব্ধ": 3260,
      "▁প্রেস": 3261,
      "▁মুদ্র": 3262,
      "খ্যান": 3263,
      "▁রু": 3264,
      "ব্রীয়": 3265,
      "▁দেন": 3266,
      "েন্দ্র": 3267,
      "▁জেন": 3268,
      "▁ইয়": 3269,
      "▁পুনরায়": 3270,
      "▁গবেষণা": 3271,
      "▁বেশির": 3272,
      "▁সংস্থা": 3273,
      "▁(জ": 3274,
      "▁বৈশিষ্ট": 3275,
      "▁কিমি": 3276,
      "▁জানি": 3277,
      "ভোগ": 3278,
      "ণের": 3279,
      "▁পছ": 3280,
      "▁জীবনে": 3281,
      "▁যাব": 3282,
      "▁শয়ত": 3283,
      "▁মনোভাব": 3284,
      "▁পর,": 3285,
      "▁কম্প": 3286,
      "▁কার্যক্রম": 3287,
      "▁মসজিদ": 3288,
      "▁গঠিত": 3289,
      "▁ধন্য": 3290,
      "▁আদি": 3291,
      "▁বিশ্বের": 3292,
      "▁অনুমোদ": 3293,
      "নীয়": 3294,
      "▁পৃথিবীর": 3295,
      "▁ভিত্তি": 3296,
      "▁বোন": 3297,
      "▁সী": 3298,
      "▁এক্স": 3299,
      "▁রান": 3300,
      "কালীন": 3301,
      "▁বহু": 3302,
      "▁অপেক্ষা": 3303,
      "▁বিয়ে": 3304,
      "রূপে": 3305,
      "▁উভয়": 3306,
      "▁সাহিত্য": 3307,
      "▁অবস্থা": 3308,
      "▁নব": 3309,
      "▁সম্মেল": 3310,
      "▁আগস্ট": 3311,
      "-১৯": 3312,
      "▁সংঘ": 3313,
      "▁পদ্ধতি": 3314,
      "▁হিন্দু": 3315,
      "▁নদ": 3316,
      "ডে": 3317,
      "▁পারি।": 3318,
      "▁আদাল": 3319,
      "▁টা": 3320,
      "▁ফ্ল": 3321,
      "▁রাখার": 3322,
      "গ্রাম": 3323,
      "▁বিজ্ঞান": 3324,
      "▁বিদেশ": 3325,
      "▁প্রতির": 3326,
      "▁নেয়": 3327,
      "▁দিনের": 3328,
      "াপা": 3329,
      "▁কাপ": 3330,
      "▁অস্ব": 3331,
      "গ্রে": 3332,
      "▁নিম্ন": 3333,
      "টিং": 3334,
      "▁মানে": 3335,
      "▁মনোন": 3336,
      "▁সহজ": 3337,
      "ঙ্গল": 3338,
      "▁কিংবা": 3339,
      "ামূলক": 3340,
      "বির": 3341,
      "▁আর্": 3342,
      "▁জার্ম": 3343,
      "▁না?": 3344,
      "ৎকার": 3345,
      "চের": 3346,
      "▁উত": 3347,
      "ফা": 3348,
      "▁শিক্ষার": 3349,
      "▁প্রস্তাব": 3350,
      "▁২৮": 3351,
      "ন্দেহ": 3352,
      "▁সহযোগ": 3353,
      "েত্র": 3354,
      "শের": 3355,
      "▁বিশ্বস্ত": 3356,
      "ু,": 3357,
      "▁হত্তয়া": 3358,
      "▁১৯১": 3359,
      "▁আবি": 3360,
      "▁:": 3361,
      "▁বিধান": 3362,
      "জ্জ": 3363,
      "▁প্রতিষ্ঠিত": 3364,
      "▁সফ": 3365,
      "খ্যাত": 3366,
      "গুলিতে": 3367,
      "▁বন": 3368,
      "▁বুদ্ধ": 3369,
      "▁করা।": 3370,
      "▁মাধ্যম": 3371,
      "▁জিনিস": 3372,
      "▁থেকেই": 3373,
      "াত্ম": 3374,
      "▁আধুনিক": 3375,
      "▁আদেশ": 3376,
      "▁নাই": 3377,
      "ুন,": 3378,
      "▁স্বা": 3379,
      "▁প্রয়োগ": 3380,
      "▁পৃথিবীতে": 3381,
      "বারে": 3382,
      "▁শক্তিশ": 3383,
      "▁দাবি": 3384,
      "ছনে": 3385,
      "▁বিধ": 3386,
      "▁স্বাধীনতা": 3387,
      "সু": 3388,
      "বাদী": 3389,
      "ৃতির": 3390,
      "▁অস্ট্র": 3391,
      "▁বিক্ষ": 3392,
      "াদার": 3393,
      "▁পদে": 3394,
      "▁পর্যা": 3395,
      "শিল্প": 3396,
      "▁প্রস্তুত": 3397,
      "▁বিনি": 3398,
      "বাদিক": 3399,
      "▁(মথি": 3400,
      "ানির": 3401,
      "▁স্যার": 3402,
      "▁আসা": 3403,
      "▁অক্টোবর": 3404,
      "▁খেলা": 3405,
      "▁সমালো": 3406,
      "শুর": 3407,
      "▁কিছুই": 3408,
      "▁বেঁ": 3409,
      "কারে": 3410,
      "▁যুব": 3411,
      "▁(আ": 3412,
      "▁নেতৃত্ব": 3413,
      "িয়াল": 3414,
      "▁ধন্যবাদ": 3415,
      "সভা": 3416,
      "▁সহায়": 3417,
      "▁সম্প্রদ": 3418,
      "▁খা": 3419,
      "▁যুগ": 3420,
      "▁পারি?": 3421,
      "▁২০০১": 3422,
      "▁আচরণ": 3423,
      "▁সালে,": 3424,
      "▁গেছে।": 3425,
      "▁১,": 3426,
      "ইন": 3427,
      "▁রিপোর্ট": 3428,
      "▁অর্থনৈতিক": 3429,
      "▁অ্যান্ড": 3430,
      "েতন": 3431,
      "খল": 3432,
      "▁উদ্যোগ": 3433,
      "▁চী": 3434,
      "পাল": 3435,
      "িকাংশ": 3436,
      "▁২৬": 3437,
      "শাস": 3438,
      "▁পারবে": 3439,
      "▁নিশ্চ": 3440,
      "গু": 3441,
      "স্থান": 3442,
      "▁আলাদা": 3443,
      "▁!": 3444,
      "▁দিব": 3445,
      "▁বিপর": 3446,
      "৫.": 3447,
      "সম্প": 3448,
      "▁মথি": 3449,
      "▁ভালবাস": 3450,
      "ৌশল": 3451,
      "▁সাংবাদিক": 3452,
      "▁নেওয়ার": 3453,
      "▁বলেছিলেন:": 3454,
      "▁নামের": 3455,
      "▁প্রথমে": 3456,
      "▁কেমন": 3457,
      "র্দ": 3458,
      "▁ফোন": 3459,
      "▁জনসংখ্যা": 3460,
      "▁তীম": 3461,
      "▁বাংলাদেশে": 3462,
      "▁পুরো": 3463,
      "যুদ্ধ": 3464,
      "▁নৌ": 3465,
      "▁প্রাক": 3466,
      "▁যোগ্য": 3467,
      "জর": 3468,
      "▁স্ন": 3469,
      "▁যাচ্ছে": 3470,
      "▁পক্ষ": 3471,
      "▁হইতে": 3472,
      "▁অত্যন্ত": 3473,
      "▁হলেন": 3474,
      "বরাহ": 3475,
      "▁ফর": 3476,
      "▁তৃত": 3477,
      "জন্য": 3478,
      "▁প্রযুক্ত": 3479,
      "িয়ায়": 3480,
      "▁ছাড়": 3481,
      "▁সুখ": 3482,
      "▁মণ্ডলীর": 3483,
      "া।": 3484,
      "▁জমি": 3485,
      "▁কোর": 3486,
      "িন্থ": 3487,
      "▁ব্যবহারকারী": 3488,
      "▁অধিকাংশ": 3489,
      "পরি": 3490,
      "াসে": 3491,
      "িনের": 3492,
      "▁সুন্দর": 3493,
      "▁উপলব্ধ": 3494,
      "▁হোক": 3495,
      "▁বেল": 3496,
      "কো": 3497,
      "কিছু": 3498,
      "▁গেছে": 3499,
      "ৃণ": 3500,
      "▁জনসংখ্যার": 3501,
      "▁শক্তিশালী": 3502,
      "▁আদম": 3503,
      "্যন্ত": 3504,
      "▁সক্রিয়": 3505,
      "▁বাণিজ্য": 3506,
      "্টার": 3507,
      "ধর": 3508,
      "▁দ্বীপ": 3509,
      "▁অধীন": 3510,
      "▁পূ": 3511,
      "▁নভেম্বর": 3512,
      "▁সম্ভাব": 3513,
      "▁আফ্র": 3514,
      "হিত": 3515,
      "পথ": 3516,
      "াধারণ": 3517,
      "▁নী": 3518,
      "তা,": 3519,
      "▁শিকার": 3520,
      "▁নিয়মিত": 3521,
      "▁বজায়": 3522,
      "▁২০১৪": 3523,
      "▁পছন্দ": 3524,
      "াতার": 3525,
      "▁বিষয়টি": 3526,
      "াপ্রভ": 3527,
      "▁সতর্ক": 3528,
      "▁জায়গা": 3529,
      "৭.": 3530,
      "▁ধরা": 3531,
      "▁স্ত্রী": 3532,
      "▁পাওয়ার": 3533,
      "াকি": 3534,
      "স্টি": 3535,
      "▁ঋ": 3536,
      "▁জর": 3537,
      "াধিক": 3538,
      "▁পরিচর্যা": 3539,
      "▁মোহ": 3540,
      "▁করিন্থ": 3541,
      "▁পত্রিকা": 3542,
      "লিত": 3543,
      "োলার": 3544,
      "্রাম": 3545,
      "▁স্থানে": 3546,
      "ত্তর": 3547,
      "ভঙ্গ": 3548,
      "▁উদ্ধ": 3549,
      "দেরকে": 3550,
      "এই": 3551,
      "▁হস্ত": 3552,
      "▁ইন্টারনে": 3553,
      "মেন্ট": 3554,
      "রত": 3555,
      "▁পায়": 3556,
      "▁নির্ধারণ": 3557,
      "▁হ্যাঁ,": 3558,
      "প্রাপ্ত": 3559,
      "▁সেন্ট": 3560,
      "▁পানি": 3561,
      "▁বাজ": 3562,
      "▁সো": 3563,
      "ভাগে": 3564,
      "▁নিযুক্ত": 3565,
      "ধারিত": 3566,
      "▁অভিষ": 3567,
      "▁ভ্রম": 3568,
      "াম্মদ": 3569,
      "▁মিড": 3570,
      "▁ওয়": 3571,
      "▁অনুবাদ": 3572,
      "▁অবস্থায়": 3573,
      "▁অগ্রগ": 3574,
      "▁তৃতীয়": 3575,
      "ভাষ": 3576,
      "▁পার্": 3577,
      "▁অনুসরণ": 3578,
      "▁পাকিস্তানের": 3579,
      "▁২০১২": 3580,
      "ডিও": 3581,
      "ফার": 3582,
      "▁চৌ": 3583,
      "পক্ষে": 3584,
      "▁মাম": 3585,
      "▁খাবার": 3586,
      "▁সেপ্টেম্বর": 3587,
      "\"-": 3588,
      "▁প্রশিক্ষণ": 3589,
      "▁জাহাজ": 3590,
      "▁সিং": 3591,
      "▁মালিক": 3592,
      "▁বিশ্ববিদ্যালয়ের": 3593,
      "▁বসব": 3594,
      "থাৎ": 3595,
      "▁সরবরাহ": 3596,
      "্যাশন": 3597,
      "▁স্বর্গ": 3598,
      "▁ইতি": 3599,
      "▁প্রতিক্র": 3600,
      "▁২০১৩": 3601,
      "িতার": 3602,
      "গঞ্জ": 3603,
      "▁কৃষি": 3604,
      "▁গোপ": 3605,
      "্রাজ": 3606,
      "িপ্ত": 3607,
      "▁হতো।": 3608,
      "▁বোধ": 3609,
      "▁কষ্ট": 3610,
      "শিয়ার": 3611,
      "▁সমা": 3612,
      "▁ক্লাব": 3613,
      "▁\"আমি": 3614,
      "াদু": 3615,
      "▁ঘরে": 3616,
      "▁রাষ্ট্রপতি": 3617,
      "▁নিয়োগ": 3618,
      "▁বোর্ড": 3619,
      "▁এড": 3620,
      "▁উদ্দেশ্যে": 3621,
      "ংসা": 3622,
      "▁প্রব": 3623,
      "দূ": 3624,
      "▁অ্যাল": 3625,
      "৬.": 3626,
      "েন্ড": 3627,
      "▁তারিখ": 3628,
      "▁ছাড়া,": 3629,
      "▁চোখ": 3630,
      "▁তত্ত্ব": 3631,
      "ন্দ্ব": 3632,
      "এফ": 3633,
      "৮.": 3634,
      "ণ্য": 3635,
      "▁জায়গায়": 3636,
      "▁যান": 3637,
      "্প্র": 3638,
      "ল্যান্ড": 3639,
      "শী": 3640,
      "▁শ্রমিক": 3641,
      "▁প্রায়ই": 3642,
      "▁এগিয়ে": 3643,
      "▁মিথ্যা": 3644,
      "▁পত": 3645,
      "▁চম": 3646,
      "▁জিজ্ঞেস": 3647,
      "কী": 3648,
      "ভব": 3649,
      "▁কিল": 3650,
      "গতের": 3651,
      "▁অনুমতি": 3652,
      "মূলক": 3653,
      "▁অঞ্চলে": 3654,
      "কেল": 3655,
      "▁যথে": 3656,
      "▁(১৮": 3657,
      "▁ভালোব": 3658,
      "▁তিনটি": 3659,
      "▁রাজধান": 3660,
      "▁ছড়িয়ে": 3661,
      "▁টুইটার": 3662,
      "বস্ত": 3663,
      "৫,": 3664,
      "৪.": 3665,
      "▁আসতে": 3666,
      "▁জন্মগ্রহণ": 3667,
      "ো?": 3668,
      "▁ন্যায়": 3669,
      "▁আরব": 3670,
      "▁অর্থাৎ": 3671,
      "▁ইস্রায়েল": 3672,
      "▁নেট": 3673,
      "শাল": 3674,
      "গকে": 3675,
      "▁বিজয়": 3676,
      "▁ব্যবস": 3677,
      "ো.": 3678,
      "▁বাড়ি": 3679,
      "সমাচার": 3680,
      "▁কং": 3681,
      "▁সুসমাচার": 3682,
      "ওয়ার্ড": 3683,
      "▁করিন্থীয়": 3684,
      "▁উচিত।": 3685,
      "▁শিষ্য": 3686,
      "তন্ত্র": 3687,
      "▁পরিশ": 3688,
      "▁ইউনিয়ন": 3689,
      "▁মেনে": 3690,
      "▁চট্ট": 3691,
      "▁জাম": 3692,
      "▁মিটার": 3693,
      "▁বাংলার": 3694,
      "পণ": 3695,
      "▁চিহ্নিত": 3696,
      "▁বিদ্র": 3697,
      "ক্ষার": 3698,
      "▁শান্তি": 3699,
      "▁উপযুক্ত": 3700,
      "▁স্বীকার": 3701,
      "▁সঙ্গীত": 3702,
      "দর্শন": 3703,
      "▁কাঁ": 3704,
      "-ক": 3705,
      "▁আজকে": 3706,
      "৯,": 3707,
      "▁অবস্থিত।": 3708,
      "▁ফাঁ": 3709,
      "▁বৈশিষ্ট্য": 3710,
      "▁ইচ্ছা": 3711,
      "▁বস্তু": 3712,
      "▁বর্গ": 3713,
      "%।": 3714,
      "সাম": 3715,
      "▁২০১০": 3716,
      "▁বাচ্চ": 3717,
      "োপদেশ": 3718,
      "▁অস্ট্রেল": 3719,
      "▁ইংল": 3720,
      "ায়ে": 3721,
      "▁শ্রেষ্ঠ": 3722,
      "▁গাছ": 3723,
      "▁ডাক": 3724,
      "▁নির্মিত": 3725,
      "▁ইংরেজ": 3726,
      "▁শার": 3727,
      "▁প্রবন্ধ": 3728,
      "▁যেকোন": 3729,
      "ুরী": 3730,
      "াদী": 3731,
      "▁সেরা": 3732,
      "সিক": 3733,
      "১.": 3734,
      "▁২৭": 3735,
      "তিরিক্ত": 3736,
      "▁শতা": 3737,
      "▁মূলত": 3738,
      "▁সর্বোচ্চ": 3739,
      "▁কিনা": 3740,
      "বয়": 3741,
      "▁বিক্ষোভ": 3742,
      "েরি": 3743,
      "▁করিতে": 3744,
      "প্রাণ": 3745,
      "▁তাক": 3746,
      "▁যথ": 3747,
      "▁লাল": 3748,
      "▁সম্পন্ন": 3749,
      "▁যথেষ্ট": 3750,
      "৩.": 3751,
      "'র": 3752,
      "িশন": 3753,
      "২.": 3754,
      "পদ": 3755,
      "▁এছাড়াও": 3756,
      "▁বিদ্য": 3757,
      "▁পরিস্থিতি": 3758,
      "▁মাসের": 3759,
      "▁ভিত": 3760,
      "ুন।": 3761,
      "্রয়": 3762,
      "▁যান।": 3763,
      "টিক": 3764,
      "▁পদক্ষেপ": 3765,
      "▁প্রচেষ্টা": 3766,
      "্বাদ": 3767,
      "▁আঘাত": 3768,
      "▁ডিগ্র": 3769,
      "▁২.": 3770,
      "▁কুম": 3771,
      "▁হত": 3772,
      "▁যির": 3773,
      "▁যন্ত্র": 3774,
      "▁ক্ষেত্র": 3775,
      "াহী": 3776,
      "▁ফুটবল": 3777,
      "▁ঘর": 3778,
      "▁হো": 3779,
      "▁ফোল": 3780,
      "▁পরিচালক": 3781,
      "▁দার": 3782,
      "▁পাহ": 3783,
      "▁থাকলে": 3784,
      "▁আর্থ": 3785,
      "▁হারিয়ে": 3786,
      "▁করবেন।": 3787,
      "▁রকম": 3788,
      "▁আপনাদের": 3789,
      "▁হল,": 3790,
      "▁যাবে।": 3791,
      "▁পথে": 3792,
      "েলের": 3793,
      "▁বলার": 3794,
      "ভে": 3795,
      "ষ্ঠান": 3796,
      "▁ফার": 3797,
      "স্ম": 3798,
      "\"।": 3799,
      "▁সাত": 3800,
      "পুস্তক": 3801,
      "মির": 3802,
      "▁যাক": 3803,
      "▁ছয়": 3804,
      "▁যেগুলো": 3805,
      "িলে": 3806,
      "▁পরের": 3807,
      "াবলি": 3808,
      "▁দিনে": 3809,
      "স,": 3810,
      "▁পিতা": 3811,
      "▁টাই": 3812,
      "ত্তম": 3813,
      "▁বসবাস": 3814,
      "▁টেলিভ": 3815,
      "৬,": 3816,
      "কেট": 3817,
      "▁হয়ত": 3818,
      "▁প্রক্র": 3819,
      "▁প্রচুর": 3820,
      ":-": 3821,
      "▁এইরকম": 3822,
      "াইয়": 3823,
      "▁পৌঁছ": 3824,
      "▁পাস": 3825,
      "▁যিহোবাকে": 3826,
      "▁প্রতিবাদ": 3827,
      "▁ইত": 3828,
      "▁তাতে": 3829,
      "▁বেঁচে": 3830,
      "▁নিশ্চয়": 3831,
      "▁আসে": 3832,
      "▁দৃষ্ট": 3833,
      "২০": 3834,
      "দ্বাণ": 3835,
      "িবাস": 3836,
      "া.": 3837,
      "্যান্ট": 3838,
      "্যাপী": 3839,
      "/১": 3840,
      "▁স্বামী": 3841,
      "▁উপায়": 3842,
      "▁(১)": 3843,
      "▁একবার": 3844,
      "▁আশীর": 3845,
      "নাথ": 3846,
      "▁করেছে,": 3847,
      "▁সত্যিই": 3848,
      "যোজ": 3849,
      "▁সিন": 3850,
      "জাতির": 3851,
      "▁নির্ধারিত": 3852,
      "▁ডিজ": 3853,
      "ণী": 3854,
      "▁কংগ্রে": 3855,
      "▁(খ": 3856,
      "মন্ত্রী": 3857,
      "▁বসে": 3858,
      "▁আসার": 3859,
      "▁নর": 3860,
      "▁রেক": 3861,
      "▁কেন?": 3862,
      "▁অসম": 3863,
      "▁সৃষ্ট": 3864,
      "ন্ধান": 3865,
      "▁গ্রুপ": 3866,
      "▁সন্দেহ": 3867,
      "ই।": 3868,
      "▁ভবিষ্যদ্বাণ": 3869,
      "্লা": 3870,
      "▁অঞ্চলের": 3871,
      "▁শুনে": 3872,
      "▁গার": 3873,
      "▁হাসপাত": 3874,
      "▁তাড়": 3875,
      "▁গর": 3876,
      "▁\"ম": 3877,
      "ভূমি": 3878,
      "▁পঞ্চ": 3879,
      "▁অসু": 3880,
      "এর": 3881,
      "▁অতিরিক্ত": 3882,
      "ধর্ম": 3883,
      "▁লড়াই": 3884,
      "ক্য": 3885,
      "▁গ্রন্থ": 3886,
      "▁নো": 3887,
      "▁নিয়ম": 3888,
      "▁আফগান": 3889,
      "▁উপভোগ": 3890,
      "▁ভেবে": 3891,
      "ির্": 3892,
      "▁(প": 3893,
      "▁অনল": 3894,
      "িউটার": 3895,
      "▁এদের": 3896,
      "▁বিভাগের": 3897,
      "▁দূরে": 3898,
      "।\"-": 3899,
      "হের": 3900,
      "▁সাক্ষাৎ": 3901,
      "ূদ": 3902,
      "▁কব": 3903,
      "▁পৃষ্ঠা": 3904,
      "ন।": 3905,
      "তাকে": 3906,
      "▁শতাংশ": 3907,
      "▁তবু": 3908,
      "▁সক্ষম": 3909,
      "▁টু": 3910,
      "▁ভূমি": 3911,
      "ড়ার": 3912,
      "▁দাব": 3913,
      "▁'আ": 3914,
      "▁উপলব্ধি": 3915,
      "▁বাহিনী": 3916,
      "▁খোলা": 3917,
      "বাধ": 3918,
      "▁সাম্রাজ": 3919,
      "▁প্রেসিড": 3920,
      "ুয়ে": 3921,
      "বায়": 3922,
      "▁ভয়ে": 3923,
      "▁ধীরে": 3924,
      "▁কী?": 3925,
      "▁৫০": 3926,
      "▁রায়": 3927,
      "▁দৃশ্য": 3928,
      "▁রেকর্ড": 3929,
      "▁সুপার": 3930,
      "▁নিরাপত্তা": 3931,
      "▁২০১৬": 3932,
      "▁দৌ": 3933,
      "▁মিলিয়ন": 3934,
      "▁মন্ত্রণ": 3935,
      "▁পার্থ": 3936,
      "▁এলাকার": 3937,
      "▁সিস্ট": 3938,
      "▁সৈন্য": 3939,
      "▁প্রতিষ্ঠা": 3940,
      "্ণ": 3941,
      "▁পরিচয়": 3942,
      "▁চির": 3943,
      "ৃষ্ট": 3944,
      "▁বিশাল": 3945,
      "▁ওয়েবস": 3946,
      "িম্প": 3947,
      "▁এগুলো": 3948,
      "▁থাকবে": 3949,
      "▁অম": 3950,
      "তী": 3951,
      "▁শাস্ত": 3952,
      "▁সংসদ": 3953,
      "▁নক": 3954,
      "▁রাখে": 3955,
      "▁যাহ": 3956,
      "▁চালিয়ে": 3957,
      "▁সাম্প্র": 3958,
      "▁২০১৫": 3959,
      "এল": 3960,
      "তে,": 3961,
      "▁পরিষ্কার": 3962,
      "▁মিস": 3963,
      "▁বলেন,": 3964,
      "িমা": 3965,
      "▁আবদ": 3966,
      "▁শো": 3967,
      "▁এখনো": 3968,
      "ার,": 3969,
      "▁শর": 3970,
      "▁জানুয়ারি": 3971,
      "▁বেশী": 3972,
      "▁নদীর": 3973,
      "▁শিরোন": 3974,
      "ানু": 3975,
      "▁অনুভূ": 3976,
      "▁প্রতিক্রিয়া": 3977,
      "▁২০০৯": 3978,
      "▁ঐতিহ": 3979,
      "▁যীশুর": 3980,
      "▁হয়নি।": 3981,
      "▁বিদ্রোহ": 3982,
      "▁সংযুক্ত": 3983,
      "▁কেন্দ্রীয়": 3984,
      "ুপ্ত": 3985,
      "থিয়": 3986,
      "দল": 3987,
      "তাম": 3988,
      "▁অনুরোধ": 3989,
      "▁তত": 3990,
      "▁কোটি": 3991,
      "ও।": 3992,
      "▁কাহ": 3993,
      "▁বঙ্গ": 3994,
      "▁প্রশংসা": 3995,
      "▁পারে?": 3996,
      "▁উপাদ": 3997,
      "▁যুক্তরাষ্ট্রের": 3998,
      "▁দোষ": 3999,
      "▁ফেস": 4000,
      "▁উৎপাদন": 4001,
      "জনের": 4002,
      "▁\"ক": 4003,
      "রাসরি": 4004,
      "োমিটার": 4005,
      "চিত্রে": 4006,
      "▁\"প": 4007,
      "▁(জন্ম": 4008,
      "▁স্বীক": 4009,
      "▁(ক)": 4010,
      "▁(২০০": 4011,
      "▁হৃদয়": 4012,
      "▁হাঁ": 4013,
      "চ্ছেদ": 4014,
      "▁সভ": 4015,
      "▁হিত": 4016,
      "টিয়ে": 4017,
      "রাম": 4018,
      "স্থার": 4019,
      "াত্মক": 4020,
      "ন্ব": 4021,
      "▁ভোগ": 4022,
      "▁ভাষার": 4023,
      "▁বেছে": 4024,
      "্যাশনাল": 4025,
      "শার": 4026,
      "▁২০০৮": 4027,
      "▁উন্ম": 4028,
      "▁প্রেরণ": 4029,
      "▁অভিজ্ঞতা": 4030,
      "\",": 4031,
      "গ্রস্ত": 4032,
      "▁অন্ধ": 4033,
      "▁বিস্তার": 4034,
      "ুরে": 4035,
      "▁২:১": 4036,
      "▁পর্যায়ে": 4037,
      "▁বিষয়গুলো": 4038,
      "▁সরাসরি": 4039,
      "বাম": 4040,
      "-র": 4041,
      "▁দাও": 4042,
      "ছিলাম।": 4043,
      "▁ল্যাং": 4044,
      "ারেল": 4045,
      "▁জন্য।": 4046,
      "▁পাশাপা": 4047,
      "▁জড়িত": 4048,
      "▁বায়": 4049,
      "▁পাথ": 4050,
      "▁গড়": 4051,
      "▁অপ্র": 4052,
      "▁ওর": 4053,
      "▁মন্ত্রণাল": 4054,
      "▁ইব্রীয়": 4055,
      "▁শোন": 4056,
      "▁জেল": 4057,
      "োয়াড়": 4058,
      "▁রহমান": 4059,
      "▁\"প্র": 4060,
      "▁কারা": 4061,
      "▁লেখক": 4062,
      "▁ফ্রান্স": 4063,
      "▁ষ": 4064,
      "স্কৃতিক": 4065,
      "▁সেইসঙ্গে": 4066,
      "▁ভেত": 4067,
      "▁তাঁদের": 4068,
      "▁গেলে": 4069,
      "৪,": 4070,
      "▁বয়সে": 4071,
      "লো": 4072,
      "▁হব": 4073,
      "▁যুদ্ধের": 4074,
      "▁ঘন": 4075,
      "▁ক্ষুদ্র": 4076,
      "্নে": 4077,
      "▁হ্র": 4078,
      "▁নিচে": 4079,
      "▁বাপ্ত": 4080,
      "োমুখ": 4081,
      "▁হবার": 4082,
      "্নের": 4083,
      "▁কোর্": 4084,
      "▁বাজার": 4085,
      "▁দুটো": 4086,
      "▁নিজস্ব": 4087,
      "▁যেভাবে": 4088,
      "▁ব্যবহারের": 4089,
      "▁নিবন্ধ": 4090,
      "▁সুবিধা": 4091,
      "▁প্রহ": 4092,
      "ঙ্গা": 4093,
      "▁ভ্রমণ": 4094,
      "▁সংস্করণ": 4095,
      "তেন": 4096,
      "▁শিক্ষক": 4097,
      "▁প্রতিরোধ": 4098,
      "▁মহিল": 4099,
      "▁রাজধানী": 4100,
      "▁কম্পিউটার": 4101,
      "▁হুম": 4102,
      "▁প্রতিটি": 4103,
      "ুতি": 4104,
      "▁পায়।": 4105,
      "▁তীমথিয়": 4106,
      "▁মুখোমুখ": 4107,
      "▁শতকের": 4108,
      "▁২০১৭": 4109,
      "▁সেনাবাহ": 4110,
      "ত্রে": 4111,
      "▁মুসলমান": 4112,
      "শাক": 4113,
      "▁সমুদ্র": 4114,
      "▁খেলোয়াড়": 4115,
      "বঙ্গ": 4116,
      "▁কি?": 4117,
      "্ঠ": 4118,
      "েম্ব": 4119,
      "ভাবিক": 4120,
      "▁প্রজ": 4121,
      "▁২০১৮": 4122,
      "ফিক": 4123,
      "▁আঁ": 4124,
      "াবাদ": 4125,
      "▁বিরোধী": 4126,
      "▁কমান": 4127,
      "▁সমন্ব": 4128,
      "▁৪০": 4129,
      "▁ক্যাল": 4130,
      "▁আন্দোলন": 4131,
      "▁আশীর্বাদ": 4132,
      "রো": 4133,
      "▁জগতের": 4134,
      "ধ্যে": 4135,
      "িয়া,": 4136,
      "▁চিঠ": 4137,
      "▁বলেন:": 4138,
      "▁সুল": 4139,
      "বেক": 4140,
      "ছেন:": 4141,
      "কালের": 4142,
      "াপনা": 4143,
      "▁হলেও": 4144,
      "▁ভোট": 4145,
      "▁ওহ": 4146,
      "্না": 4147,
      "▁চেয়ার": 4148,
      "▁অঙ্গ": 4149,
      "▁খুল": 4150,
      "▁ত্যাগ": 4151,
      "▁ঐতিহাস": 4152,
      "▁চায়": 4153,
      "▁২০০৭": 4154,
      "▁চাহ": 4155,
      "গম": 4156,
      "বিধ": 4157,
      "স্বরূপ,": 4158,
      "▁সংযোগ": 4159,
      "▁খবর": 4160,
      "▁রং": 4161,
      "▁বেশিরভাগ": 4162,
      "▁(খ)": 4163,
      "য়েন": 4164,
      "▁নির্ম": 4165,
      "▁কোম্পানি": 4166,
      "▁ল্যাংড": 4167,
      "▁মুখোমুখি": 4168,
      "যো": 4169,
      "▁সান": 4170,
      "▁ক্ষমা": 4171,
      "খ্যক": 4172,
      "▁থাম": 4173,
      "▁ব্যয়": 4174,
      "▁সাংস্কৃতিক": 4175,
      "োধন": 4176,
      "▁ইত্যাদি": 4177,
      "বিধান": 4178,
      "▁ড্র": 4179,
      "৫০": 4180,
      "কারের": 4181,
      "▁পরবর্ত": 4182,
      "▁আমন্ত্রণ": 4183,
      "্যুৎ": 4184,
      "▁না!": 4185,
      "▁২৯": 4186,
      "▁ফিলিপ": 4187,
      "▁বাছ": 4188,
      "▁ঘটনার": 4189,
      "▁করিয়ে": 4190,
      "▁রোমীয়": 4191,
      "▁গীতসংহিতা": 4192,
      "▁বিখ্যাত": 4193,
      "ুদি": 4194,
      "▁অস্ত্র": 4195,
      "▁রাজনীতি": 4196,
      "ঞ্": 4197,
      "▁আগের": 4198,
      "জীবন": 4199,
      "▁বছরে": 4200,
      "▁একেবারে": 4201,
      "▁দেখানো": 4202,
      "▁পাশাপাশি": 4203,
      "গোষ্ঠ": 4204,
      "▁দৃষ্টিভঙ্গ": 4205,
      "▁প্রযোজ": 4206,
      "▁গৌ": 4207,
      "▁দয়া": 4208,
      "▁ব্যক্তিকে": 4209,
      "▁বেড়ে": 4210,
      "▁প্রভাবিত": 4211,
      "ছেন?": 4212,
      "ন্দের": 4213,
      "▁ফলা": 4214,
      "▁হাল": 4215,
      "লেক": 4216,
      "▁গাড়": 4217,
      "▁সাক্ষ্য": 4218,
      "▁প্রিয়": 4219,
      "▁শত্র": 4220,
      "ায়িত": 4221,
      "▁(গীত": 4222,
      "▁করেছেন,": 4223,
      "▁খ্রীষ্টান": 4224,
      "▁আনু": 4225,
      "▁গাড়ি": 4226,
      "▁যেটি": 4227,
      "▁বৌ": 4228,
      "▁হয়নি": 4229,
      "▁শীর্ষ": 4230,
      "▁(স": 4231,
      "শনের": 4232,
      "ুনা": 4233,
      "▁আসে।": 4234,
      "াইভ": 4235,
      "ঘ্র": 4236,
      "▁জার্মান": 4237,
      "▁রঙ": 4238,
      "▁এটাই": 4239,
      "দন্ত": 4240,
      "▁উন্নত": 4241,
      "▁দাঁড়িয়ে": 4242,
      "▁চিত্র]": 4243,
      "▁প্রতিনিধ": 4244,
      "▁করতেন।": 4245,
      "▁দিচ্": 4246,
      "িগ": 4247,
      "▁স্বাক্ষ": 4248,
      "▁দিয়েছিলেন।": 4249,
      "পরে": 4250,
      "▁৩১": 4251,
      "▁অধ্যাপ": 4252,
      "▁বিভাগে": 4253,
      "▁১.": 4254,
      "দিনের": 4255,
      "▁(২০১": 4256,
      "স্টিটিউ": 4257,
      "▁সংগঠন": 4258,
      "চনার": 4259,
      "বেল": 4260,
      "▁স্থায়ী": 4261,
      "▁বিপ্ল": 4262,
      "জাতি": 4263,
      "▁অনুমোদন": 4264,
      "▁খেলার": 4265,
      "▁কলকাতা": 4266,
      "▁বাতিল": 4267,
      "▁পরিপূর্ণ": 4268,
      "চা": 4269,
      "▁বলেছিলেন": 4270,
      "▁সন": 4271,
      "টাকে": 4272,
      "াবল": 4273,
      "▁ইন্টারনেট": 4274,
      "▁ভো": 4275,
      "ডেল": 4276,
      "র,": 4277,
      "▁করছি": 4278,
      "যাপন": 4279,
      "রির": 4280,
      "▁চমৎকার": 4281,
      "▁হবে?": 4282,
      "▁সেটার": 4283,
      "▁গ্লোব": 4284,
      "▁কিলোমিটার": 4285,
      "▁অনুষ্ঠান": 4286,
      "▁নাকি": 4287,
      "▁আও": 4288,
      "খানা": 4289,
      "▁আপনারা": 4290,
      "াতের": 4291,
      "▁জানে": 4292,
      "্টা": 4293,
      "▁১০০": 4294,
      "▁রাম": 4295,
      "▁সাধ": 4296,
      "▁ফেব্রুয়ারি": 4297,
      "সী": 4298,
      "▁উৎসর্গ": 4299,
      "্যাক্ট": 4300,
      "েড": 4301,
      "▁খর": 4302,
      "▁সাক্ষর": 4303,
      "▁কর্মসূ": 4304,
      "▁বী": 4305,
      "-অ": 4306,
      "িকের": 4307,
      "কাপ": 4308,
      "▁ফেলা": 4309,
      "▁ইনস্টিটিউ": 4310,
      "্রেড": 4311,
      "▁রাস্তা": 4312,
      "▁দুর্বল": 4313,
      "▁ইংল্যান্ড": 4314,
      "▁চূ": 4315,
      "▁অভাব": 4316,
      "▁টেস্ট": 4317,
      "▁কর্মকর্তা": 4318,
      "িখিত": 4319,
      "মহ": 4320,
      "চন": 4321,
      "▁(অ": 4322,
      "▁আকর্ষণ": 4323,
      "▁জ্ব": 4324,
      "▁প্রদর্শ": 4325,
      "▁চুক্তি": 4326,
      "▁(১৯৯": 4327,
      "▁বিদ্যমান": 4328,
      "▁স্টেশন": 4329,
      "▁ব্যবস্থার": 4330,
      "▁সেক": 4331,
      "্য,": 4332,
      "টেড": 4333,
      "▁পণ্য": 4334,
      "▁ধারা": 4335,
      "্লিষ্ট": 4336,
      "▁আল্লাহ": 4337,
      "▁সিল": 4338,
      "▁সম্পর্কিত": 4339,
      "▁সন্তানদের": 4340,
      "৮,": 4341,
      "৭,": 4342,
      "োপুরি": 4343,
      "▁তরুণ": 4344,
      "▁খ্রিস্টাব্দ": 4345,
      "▁সাক্ষিদের": 4346,
      "▁করত।": 4347,
      "▁বাড়িতে": 4348,
      "▁(২)": 4349,
      "▁অক্ষ": 4350,
      "▁সম্পদ": 4351,
      "▁(এ": 4352,
      "▁আমেরিকা": 4353,
      "▁জুড়ে": 4354,
      "▁০.": 4355,
      "▁পৃথক": 4356,
      "▁সহায়তা": 4357,
      "মত": 4358,
      "▁জর্জ": 4359,
      "▁মজ": 4360,
      "ডেম": 4361,
      "▁দখল": 4362,
      "▁বৌদ্ধ": 4363,
      "▁যুক্তি": 4364,
      "▁প্রেসিডেন্ট": 4365,
      "▁আলী": 4366,
      "▁পড়তে": 4367,
      "▁মাথা": 4368,
      "্যব": 4369,
      "▁বিপক্ষে": 4370,
      "▁অভিয": 4371,
      "▁৫:১": 4372,
      "▁অন্তর্": 4373,
      "▁এশিয়া": 4374,
      "▁কান": 4375,
      "বারের": 4376,
      "▁পরাজিত": 4377,
      "িক্স": 4378,
      "্দের": 4379,
      "▁ব্যবসা": 4380,
      "▁ঐতিহাসিক": 4381,
      "দ্বন্দ্ব": 4382,
      "▁প্রক্রিয়া": 4383,
      "ান্ত্রিক": 4384,
      "াস্ত": 4385,
      "▁সার্ব": 4386,
      "▁আয়োজন": 4387,
      "▁প্রযুক্তি": 4388,
      "▁শাখা": 4389,
      "▁বাধা": 4390,
      "▁উইল": 4391,
      "▁ডেভ": 4392,
      "▁*": 4393,
      "▁সিস্টেম": 4394,
      "▁চাহিদ": 4395,
      "▁শতাব্দীর": 4396,
      "▁বিষয়বস্ত": 4397,
      "▁শর্ত": 4398,
      "▁লন্ড": 4399,
      "▁না.": 4400,
      "▁ক্যাথ": 4401,
      "-প্র": 4402,
      "▁৪:১": 4403,
      "▁ঈ": 4404,
      "▁চরিত্র": 4405,
      "▁মেয়": 4406,
      "▁গ্রামে": 4407,
      "▁ভ্র": 4408,
      "▁ডলার": 4409,
      "িংস": 4410,
      "▁১:১": 4411,
      "▁বিদ্যুৎ": 4412,
      "▁নিঃ": 4413,
      "▁সান্ত": 4414,
      "▁উপকার": 4415,
      "▁ধারাবাহ": 4416,
      "▁ঐতিহ্য": 4417,
      "▁মাছ": 4418,
      "ভুক্ত": 4419,
      "ীতির": 4420,
      "▁দুজন": 4421,
      "▁আমেরিকান": 4422,
      "▁কাউন্স": 4423,
      "ৃত্ত": 4424,
      "▁শয়তান": 4425,
      "ধারা": 4426,
      "▁নেতা": 4427,
      "▁জেনারেল": 4428,
      "▁রচনা": 4429,
      "াদিগকে": 4430,
      "▁চলচ্চিত্রে": 4431,
      "ান্তরিত": 4432,
      "▁মের": 4433,
      "▁আত্মা": 4434,
      "▁যথা": 4435,
      "▁ভাষায়]": 4436,
      "্নি": 4437,
      "উন": 4438,
      "▁পরবর্তীতে": 4439,
      "▁ঘৃণ": 4440,
      "িলের": 4441,
      "▁কঠোর": 4442,
      "▁বিলুপ্ত": 4443,
      "শেষে": 4444,
      "▁করেছিল,": 4445,
      "▁উপন": 4446,
      "বুক": 4447,
      "ীয়দের": 4448,
      "▁\"দ্য": 4449,
      "▁অভিনেত্র": 4450,
      "ফে": 4451,
      "▁হোম": 4452,
      "▁লোকের": 4453,
      "িষ্": 4454,
      "▁খুশি": 4455,
      "ওয়ার্ক": 4456,
      "▁কণ": 4457,
      "▁শীঘ্র": 4458,
      "▁তৈরী": 4459,
      "বাহিত": 4460,
      "ব্যাপী": 4461,
      "▁ভারতে": 4462,
      "▁দাঁড়": 4463,
      "▁বিভক্ত": 4464,
      "▁\"হ": 4465,
      "▁মহান": 4466,
      "▁প্রাকৃতিক": 4467,
      "▁ক্যাম": 4468,
      "-শ": 4469,
      "কারীদের": 4470,
      "▁বিষয়ের": 4471,
      "২,": 4472,
      "▁করা,": 4473,
      "বিশ্বাস": 4474,
      "▁অবি": 4475,
      "▁নির্বাচনে": 4476,
      "▁স্কুলে": 4477,
      "কারি": 4478,
      "উন্ট": 4479,
      "▁দর্শ": 4480,
      "▁\"ব": 4481,
      "স্টার": 4482,
      "এইচ": 4483,
      "▁পুরোপুরি": 4484,
      "▁একক": 4485,
      "▁থাকেন।": 4486,
      "▁অনন্ত": 4487,
      "িমি": 4488,
      "ামত": 4489,
      "▁জন্য,": 4490,
      "▁মুছে": 4491,
      "নিষ্ঠ": 4492,
      "▁পদার্থ": 4493,
      "▁বিষয়ক": 4494,
      "ুল্লাহ": 4495,
      "▁অধি": 4496,
      "টিল": 4497,
      "ীড়": 4498,
      "ানার": 4499,
      "▁প্রহরী": 4500,
      "্ষিক": 4501,
      "▁রাই": 4502,
      "্যান্স": 4503,
      "▁ইন্দ": 4504,
      "▁সকলে": 4505,
      "▁খ্রিস্টীয়": 4506,
      "▁কমিশন": 4507,
      "▁ইংরেজি": 4508,
      "▁উৎসাহিত": 4509,
      "▁৩.": 4510,
      "▁হইয়া": 4511,
      "▁দেত্তয়া": 4512,
      "▁কমিটি": 4513,
      "▁সদাপ্রভ": 4514,
      "▁সামান্য": 4515,
      "▁সুন": 4516,
      "▁\"আম": 4517,
      "▁প্রান্ত": 4518,
      "▁পিছনে": 4519,
      "▁ফের": 4520,
      "শোর": 4521,
      "সংঘ": 4522,
      "▁আবেদন": 4523,
      "▁পাত": 4524,
      "▁তৎ": 4525,
      "▁প্রতিদ্বন্দ্ব": 4526,
      "▁দেখায়": 4527,
      "▁বিমানব": 4528,
      "▁অনুগ্রহ": 4529,
      "েত্রে": 4530,
      "িমে": 4531,
      "▁অনুভব": 4532,
      "প্রে": 4533,
      "িসের": 4534,
      "কীয়": 4535,
      "▁কেন,": 4536,
      "্যানিশ": 4537,
      "▁চিকিৎসা": 4538,
      "দুর্গ": 4539,
      "ব্যব": 4540,
      "▁আছে?": 4541,
      "িরা": 4542,
      "▁হচ্ছে,": 4543,
      "▁কিছুটা": 4544,
      "▁দিয়েছে।": 4545,
      "▁সংশ্লিষ্ট": 4546,
      "▁তাম": 4547,
      "ভাবেই": 4548,
      "▁ঝুঁ": 4549,
      "▁বাঁচ": 4550,
      "ুকে": 4551,
      "▁প্রতীক": 4552,
      "োত": 4553,
      "বিশেষ": 4554,
      "িত,": 4555,
      "ংরেজি": 4556,
      "▁হোস": 4557,
      "▁প্রোগ": 4558,
      "▁সত্ত্বেও": 4559,
      "▁চলতে": 4560,
      "▁মিশর": 4561,
      "▁সচেতন": 4562,
      "▁কাউকে": 4563,
      "উল": 4564,
      "▁পরিবর্তে": 4565,
      "▁সাম্প্রতিক": 4566,
      "▁পাখ": 4567,
      "▁অসুস্থ": 4568,
      "িতায়": 4569,
      "▁কাগ": 4570,
      "ব,": 4571,
      "▁দেখার": 4572,
      "▁লীগ": 4573,
      "সারণ": 4574,
      "▁ঔ": 4575,
      "▁হিসাব": 4576,
      "াইজ": 4577,
      "▁সহজে": 4578,
      "গুলিকে": 4579,
      "▁সোস": 4580,
      "▁গোষ্ঠ": 4581,
      "▁টেলিভিশন": 4582,
      "ায়ার": 4583,
      "▁বলে:": 4584,
      "ুমারি": 4585,
      "▁উন্নতি": 4586,
      "▁ভালোবাস": 4587,
      "মার্ক": 4588,
      "যুদ্ধের": 4589,
      "নো": 4590,
      "▁উদাহরণস্বরূপ,": 4591,
      "▁সাক্ষরতার": 4592,
      "▁ফুল": 4593,
      "▁বিশ্বকাপ": 4594,
      "বিক": 4595,
      "চর": 4596,
      "▁২০০৬": 4597,
      "স্থায়ী": 4598,
      "▁চ্যাম্প": 4599,
      "▁পোশাক": 4600,
      "▁স্বাক্ষর": 4601,
      "▁আদর্শ": 4602,
      "▁মূল্যবান": 4603,
      "্গ": 4604,
      "▁নং": 4605,
      "▁সূত্র": 4606,
      "সমূহের": 4607,
      "▁গুপ্ত": 4608,
      "▁(র": 4609,
      "বাচক": 4610,
      "বো": 4611,
      "▁যত্ন": 4612,
      "▁সেখান": 4613,
      "▁সংস্কার": 4614,
      "▁গেম": 4615,
      "েজ": 4616,
      "▁মুখে": 4617,
      "ৃতা": 4618,
      "শিয়ান": 4619,
      "ৃদ্ধ": 4620,
      "চ্ছিন্ন": 4621,
      "িত্তিক": 4622,
      "১,": 4623,
      "▁অনুপ্রাণ": 4624,
      "▁নগর": 4625,
      "▁পড়ে।": 4626,
      "▁নজর": 4627,
      "ুয়া": 4628,
      "▁নি।": 4629,
      "▁মেল": 4630,
      "তান": 4631,
      "▁ভিত্তিতে": 4632,
      "তিক্রম": 4633,
      "বাসী": 4634,
      "▁চরিত": 4635,
      "্ফ": 4636,
      "▁আনা": 4637,
      "াইড": 4638,
      "▁কার্যকর": 4639,
      "▁(ইংরেজি": 4640,
      "ওয়ায়": 4641,
      "▁প্রচলিত": 4642,
      "ুকুর": 4643,
      "-৪": 4644,
      "▁সবার": 4645,
      "▁প্রতিজ্ঞা": 4646,
      "▁সম্প্রতি": 4647,
      "▁বাগ": 4648,
      "▁পারবেন": 4649,
      "বদ্ধ": 4650,
      "▁একত্র": 4651,
      "▁ইঙ্গ": 4652,
      "িয়েল": 4653,
      "▁নির্দেশনা": 4654,
      "▁দশকে": 4655,
      "▁তেমন": 4656,
      "ড়ান্ত": 4657,
      "ধরনের": 4658,
      "▁চতু": 4659,
      "▁হয়েছিলেন।": 4660,
      "ি.": 4661,
      "▁বিশিষ্ট": 4662,
      "▁জগৎ": 4663,
      "বাদের": 4664,
      "বার্ট": 4665,
      "▁স্নাত": 4666,
      "াগ": 4667,
      "▁তুলনা": 4668,
      "িস্ম": 4669,
      "▁বাছাই": 4670,
      "▁এটাকে": 4671,
      "▁নানা": 4672,
      "ট,": 4673,
      "▁অনুসন্ধান": 4674,
      "▁মনোনীত": 4675,
      "▁অনুভূতি": 4676,
      "▁তেল": 4677,
      "▁খুন": 4678,
      "▁এখান": 4679,
      "▁লুক": 4680,
      "িদ্ধ": 4681,
      "▁করছেন।": 4682,
      "▁পরিচর্য": 4683,
      "▁আবিষ্কার": 4684,
      "▁যুদ্ধে": 4685,
      "▁দিয়েছিলেন": 4686,
      "ুরা": 4687,
      "য়েলের": 4688,
      "▁উপদেশ": 4689,
      "▁বলে,": 4690,
      "বাধিকার": 4691,
      "ষ্টির": 4692,
      "▁অধ্যক্ষ": 4693,
      "▁যাচ্ছে।": 4694,
      "▁সমাধান": 4695,
      "▁ভবিষ্যদ্বাণী": 4696,
      "েশনের": 4697,
      "▁স্বপ": 4698,
      "▁মাত": 4699,
      "▁কথাগুলো": 4700,
      "▁ছিলেন,": 4701,
      "▁তাঁরা": 4702,
      "▁চৌধ": 4703,
      "▁বোম": 4704,
      "দর্শ": 4705,
      "▁না।\"": 4706,
      "▁আকা": 4707,
      "▁আদমশ": 4708,
      "▁ফলাফল": 4709,
      "▁সেল": 4710,
      "▁মেড": 4711,
      "▁স্মৃতি": 4712,
      "নির": 4713,
      "▁এনে": 4714,
      "▁শেষে": 4715,
      "▁প্রতিবেদন": 4716,
      "ামো": 4717,
      "▁অলিম্প": 4718,
      "▁করে?": 4719,
      "▁এইচ": 4720,
      "▁ঈশ্বরকে": 4721,
      "জু": 4722,
      "িয়াস": 4723,
      "▁রাতে": 4724,
      "▁\"তোম": 4725,
      "▁ঋণ": 4726,
      "▁তোলা": 4727,
      "িরে": 4728,
      "▁ছাপ": 4729,
      "ুষ্য": 4730,
      "উট": 4731,
      "▁ক্রম": 4732,
      "▁সমস্যার": 4733,
      "▁নেটওয়ার্ক": 4734,
      "▁৪:": 4735,
      "▁গ্রী": 4736,
      "ংখ্যান": 4737,
      "▁মন্ত্র": 4738,
      "▁জানুয়ার": 4739,
      "▁বাকি": 4740,
      "▁মানবাধিকার": 4741,
      "▁৪.": 4742,
      "োপা": 4743,
      "কল্প": 4744,
      "৩,": 4745,
      "পূ": 4746,
      "▁ওকে": 4747,
      "▁উপক": 4748,
      "▁চাষ": 4749,
      "▁দেয়,": 4750,
      "▁তাঁহার": 4751,
      "▁ব্যক্তিরা": 4752,
      "▁উল্ল": 4753,
      "▁ডিগ্রি": 4754,
      "▁দেখাতে": 4755,
      "▁সকলের": 4756,
      "▁শম": 4757,
      "▁অনুপ্রাণিত": 4758,
      "▁জার": 4759,
      "▁খোঁ": 4760,
      "▁ফোল্ডার": 4761,
      "▁প্রতিদিন": 4762,
      "▁নারীদের": 4763,
      "▁বক্তৃতা": 4764,
      "▁পরিত": 4765,
      "ামীর": 4766,
      "▁সবকিছু": 4767,
      "ষিত": 4768,
      "োয়ার": 4769,
      "▁করেছি": 4770,
      "০,": 4771,
      "▁উপায়ে": 4772,
      "মেদ": 4773,
      "▁অভ্যন্ত": 4774,
      "▁সীমান": 4775,
      "▁উপাদান": 4776,
      "▁পশ্চিমবঙ্গ": 4777,
      "▁লূক": 4778,
      "▁গুলি": 4779,
      "▁বরা": 4780,
      "▁লক্ষ্যে": 4781,
      "▁চলচ্চিত্রের": 4782,
      "▁অ্যান": 4783,
      "▁ম্যান": 4784,
      "▁অস্তিত্ব": 4785,
      "াল,": 4786,
      "▁বোঝা": 4787,
      "▁মাহ": 4788,
      "▁যায়নি": 4789,
      "▁বাহিনীর": 4790,
      "▁প্যা": 4791,
      "বারিক": 4792,
      "▁অগ": 4793,
      "▁ভবন": 4794,
      "ড়াতে": 4795,
      "▁বহন": 4796,
      "▁শৈ": 4797,
      "▁লাইন": 4798,
      "▁যেকোনো": 4799,
      "▁নষ্ট": 4800,
      "▁ধন": 4801,
      "▁মানুষকে": 4802,
      "▁চাকরি": 4803,
      "▁যাও": 4804,
      "ড়ক": 4805,
      "▁উপাত্ত": 4806,
      "▁১৯০": 4807,
      "▁বাক্স": 4808,
      "▁মৌলিক": 4809,
      "▁প্রহরীদুর্গ": 4810,
      "েচ্ছ": 4811,
      "▁সরিয়ে": 4812,
      "▁পড়ার": 4813,
      "▁জনগণের": 4814,
      "▁অভিষিক্ত": 4815,
      "▁খুলে": 4816,
      "্লি": 4817,
      "▁(ল": 4818,
      "▁শিব": 4819,
      "▁ওয়েবসাইট": 4820,
      "▁আচ্ছ": 4821,
      "বণ": 4822,
      "▁পশু": 4823,
      "▁উইন্ড": 4824,
      "▁কেননা": 4825,
      "▁রস": 4826,
      "িবদ্ধ": 4827,
      "▁হিতোপদেশ": 4828,
      "▁বিস্ম": 4829,
      "ফতার": 4830,
      "গোল": 4831,
      "েতা": 4832,
      "িকো": 4833,
      "▁সোসাই": 4834,
      "▁নগ": 4835,
      "▁সম্মুখ": 4836,
      "▁আগেই": 4837,
      "ত্বের": 4838,
      "▁ডান": 4839,
      "▁সদর": 4840,
      "▁ভাস": 4841,
      "▁অন্যদিকে": 4842,
      "▁কৌশল": 4843,
      "▁খেলায়": 4844,
      "▁মিডিয়া": 4845,
      "রাট": 4846,
      "▁কাব": 4847,
      "দ্ধা": 4848,
      "▁পৃথিবী": 4849,
      "ুতে": 4850,
      "▁হতা": 4851,
      "▁তুই": 4852,
      "▁মেষ": 4853,
      "▁সংস্কৃতি": 4854,
      "ামি": 4855,
      "▁পারেন?": 4856,
      "▁সম্প্রদায়ের": 4857,
      "কা.": 4858,
      "াঞ্চ": 4859,
      "▁ডাক্ত": 4860,
      "▁অর্ধ": 4861,
      "▁গতি": 4862,
      "▁স্বেচ্ছ": 4863,
      "▁পৌর": 4864,
      "▁তোলার": 4865,
      "সেস": 4866,
      "▁(১৯৬": 4867,
      "▁পরম": 4868,
      "▁পারিবারিক": 4869,
      "াবদ্ধ": 4870,
      "▁বদলে": 4871,
      "▁চূড়ান্ত": 4872,
      "▁পরিচিত।": 4873,
      "▁ফেসবুক": 4874,
      "▁জাতির": 4875,
      "▁অনুকরণ": 4876,
      "▁নেই,": 4877,
      "▁বিক্রি": 4878,
      "ীদ": 4879,
      "▁বার্ত": 4880,
      "স্ত্র": 4881,
      "▁ছেলেমে": 4882,
      "▁আর্থিক": 4883,
      "ূন্য": 4884,
      "▁করছেন": 4885,
      "▁দেখুন।": 4886,
      "▁এন্ড": 4887,
      "▁নিহত": 4888,
      "▁চরিত্রে": 4889,
      "▁আকাঙ্": 4890,
      "▁মর্য": 4891,
      "য়োজিত": 4892,
      "▁পরিসংখ্যান": 4893,
      "ীকরণ": 4894,
      "▁শুনতে": 4895,
      "▁গবেষণ": 4896,
      "কুম": 4897,
      "চ্ছু": 4898,
      "▁প্রতিনিধিত্ব": 4899,
      "▁দিয়া": 4900,
      "▁পয়": 4901,
      "▁শিক্ষার্থ": 4902,
      "▁স্ট্র": 4903,
      "▁তুলতে": 4904,
      "াপুর": 4905,
      "য়িক": 4906,
      "▁এয়ার": 4907,
      "▁মাঠ": 4908,
      "▁দুষ্ট": 4909,
      "▁সদস্যদের": 4910,
      "জিক": 4911,
      "▁স্বার্থ": 4912,
      "▁ইঙ্গিত": 4913,
      "▁রপ্ত": 4914,
      "▁মানসিক": 4915,
      "▁সুই": 4916,
      "ীরের": 4917,
      "▁জগতে": 4918,
      "▁নিষিদ্ধ": 4919,
      "▁সত্ত্বেও,": 4920,
      "হাস": 4921,
      "▁কবি": 4922,
      "▁পারবে।": 4923,
      "▁মাদ্র": 4924,
      "▁আকাশ": 4925,
      "▁লম্ব": 4926,
      "▁৬:১": 4927,
      "▁আফগানিস্ত": 4928,
      "টস": 4929,
      "▁পাহাড়": 4930,
      "▁তদন্ত": 4931,
      "▁(১৯৭": 4932,
      "▁\"ঈশ্ব": 4933,
      "▁লু": 4934,
      "▁থাকবে।": 4935,
      "▁এরকম": 4936,
      "▁(যোহন": 4937,
      "▁নৈতিক": 4938,
      "▁পারি,": 4939,
      "▁ক্যার": 4940,
      "ো!": 4941,
      "▁গ্লোবাল": 4942,
      "্যাক্স": 4943,
      "▁চেয়ারম্যান": 4944,
      "▁উনি": 4945,
      "▁পুনর্": 4946,
      "▁তবুও": 4947,
      "▁দিয়েছে": 4948,
      "ান্ট": 4949,
      "▁মূর্ত": 4950,
      "াকারী": 4951,
      "▁নিখ": 4952,
      "▁তুলনায়": 4953,
      "▁রি": 4954,
      "▁পাঠিয়ে": 4955,
      "▁গণ্য": 4956,
      "▁বর্ষ": 4957,
      "▁যাকে": 4958,
      "লায়": 4959,
      "েনা": 4960,
      "▁দেহ": 4961,
      "বিজ্ঞান": 4962,
      "▁দায়ূদ": 4963,
      "▁চোখে": 4964,
      "▁মোহাম্মদ": 4965,
      "▁ইঞ্জ": 4966,
      "▁নম্র": 4967,
      "▁সরকারী": 4968,
      "?\"": 4969,
      "▁দ্যা": 4970,
      "▁চ্যাম্পিয়ন": 4971,
      "▁কাছাকা": 4972,
      "▁বিস্তৃত": 4973,
      "▁চীন": 4974,
      "▁বাপ্তিস্ম": 4975,
      "াইয়া": 4976,
      "▁আহমেদ": 4977,
      "▁কর্মচার": 4978,
      "▁ক্যাপ": 4979,
      "▁কোড": 4980,
      "▁আসুন": 4981,
      "চাল": 4982,
      "▁ভর্ত": 4983,
      "▁ঘটে।": 4984,
      "নির্": 4985,
      "▁দুর্গ": 4986,
      "▁পরিচর্যায়": 4987,
      "▁সমাজের": 4988,
      "িন্স": 4989,
      "▁সৌদি": 4990,
      "▁গ্রেফতার": 4991,
      "▁এসেছে": 4992,
      "▁পুনরুত": 4993,
      "▁প্রদানের": 4994,
      "▁বার্ষিক": 4995,
      "▁ইয়ো": 4996,
      "▁উপাসনা": 4997,
      "▁নেয়।": 4998,
      "্যানে": 4999,
      "▁সমালোচনা": 5000,
      "▁আরেকটি": 5001,
      "ভিত্তিক": 5002,
      "াফ": 5003,
      "▁ধৈ": 5004,
      "▁ক্রমা": 5005,
      "▁যিরূ": 5006,
      "রাষ্ট্র": 5007,
      "পে": 5008,
      "▁তাহা": 5009,
      "▁শাস্তি": 5010,
      "ৃঙ্": 5011,
      "▁এজ": 5012,
      "▁শারীর": 5013,
      "▁যিহূ": 5014,
      "ম্ম": 5015,
      "▁টুইট": 5016,
      "▁লিপ": 5017,
      "▁(১৯৮": 5018,
      "িষ": 5019,
      "▁নিউজ": 5020,
      "▁কৃতজ্ঞ": 5021,
      "টিভ": 5022,
      "▁জনগণ": 5023,
      "▁কালো": 5024,
      "▁যাত্রা": 5025,
      "▁প্রতিনিধি": 5026,
      "▁কর্প": 5027,
      "সেন্স": 5028,
      "▁সাপ": 5029,
      "▁প্রধানমন্ত্রী": 5030,
      "▁উপ-": 5031,
      "▁নেয়া": 5032,
      "▁ক্রমাগত": 5033,
      "▁১:": 5034,
      "▁প্রয়োজন।": 5035,
      "▁অর্থনীতি": 5036,
      "▁একাডেম": 5037,
      "সাধারণ": 5038,
      "▁অ্যাপ": 5039,
      "াধিকার": 5040,
      "▁ভিতরে": 5041,
      "টর": 5042,
      "▁সাফল": 5043,
      "▁আক্রান্ত": 5044,
      "▁স্বাভাবিক": 5045,
      "কু": 5046,
      "▁বেসর": 5047,
      "াশ": 5048,
      "▁নিষ্": 5049,
      ",\"": 5050,
      "▁সংখ্যক": 5051,
      "্কার": 5052,
      "▁বাজে": 5053,
      "▁এমনকী": 5054,
      "ীব্র": 5055,
      "▁করতেন": 5056,
      "▁বইয়ের": 5057,
      "▁দোক": 5058,
      "▁ধার্ম": 5059,
      "▁প্যার": 5060,
      "্যানেল": 5061,
      "▁বলে।": 5062,
      "▁২০০০": 5063,
      "▁ভুলে": 5064,
      "▁ইতিম": 5065,
      "▁স্বীকৃতি": 5066,
      "রিদ্র": 5067,
      "▁সমগ্র": 5068,
      "▁ত্রুটি": 5069,
      "▁বিপদ": 5070,
      "বোধ": 5071,
      "▁১৯৭১": 5072,
      "▁প্রদেশের": 5073,
      "▁জটিল": 5074,
      "▁শীত": 5075,
      "সিদ্ধ": 5076,
      "▁আমেরিকার": 5077,
      "্যুত": 5078,
      "▁বাংলায়": 5079,
      "▁তাহার": 5080,
      "▁এফ": 5081,
      "্লিউ": 5082,
      "ায়া": 5083,
      "▁চাহিদা": 5084,
      "▁সান্ত্ব": 5085,
      "▁কোথা": 5086,
      "▁চাইতে": 5087,
      "▁জাতিসংঘ": 5088,
      "ধিক": 5089,
      "▁পত্রিকার": 5090,
      "ক্ষিপ্ত": 5091,
      "▁ইউরোপীয়": 5092,
      "▁%": 5093,
      "▁বয়স্ক": 5094,
      "▁ঘন্ট": 5095,
      "▁যাকোব": 5096,
      "ভার্স": 5097,
      "▁ক্যাম্প": 5098,
      "শিপ": 5099,
      "দানের": 5100,
      "১৯": 5101,
      "▁বলেছেন": 5102,
      "▁বাঙ": 5103,
      "৩০": 5104,
      "▁পূরণ": 5105,
      "▁যোগদান": 5106,
      "মূহ": 5107,
      "▁চট্টগ্রাম": 5108,
      "▁উদ্ভ": 5109,
      "জিব": 5110,
      "▁যিশাইয়": 5111,
      "য়ং": 5112,
      "▁কাট": 5113,
      "কান": 5114,
      "▁কল্পনা": 5115,
      "▁তীব্র": 5116,
      "▁ময়": 5117,
      "▁খ্রীষ্টীয়": 5118,
      "▁সমিত": 5119,
      "শক্তি": 5120,
      "▁সীমান্ত": 5121,
      "ভাবে,": 5122,
      "পন": 5123,
      "াক্তন": 5124,
      "নিবেশ": 5125,
      "▁সেগুলোর": 5126,
      "বিষ": 5127,
      "▁কারো": 5128,
      "▁আয়তন": 5129,
      "বর্তন": 5130,
      "▁একাধিক": 5131,
      "▁অস্বীকার": 5132,
      "▁আদমশুমারি": 5133,
      "▁পাশে": 5134,
      "▁ভবিষ্যৎ": 5135,
      "ডম": 5136,
      "িদের": 5137,
      "▁ওয়েব": 5138,
      "▁ইহ": 5139,
      "▁আফ্রিকা": 5140,
      "▁ইত্যাদ": 5141,
      "দৃ": 5142,
      "▁নিন": 5143,
      "▁আস্থা": 5144,
      "▁৬০": 5145,
      "▁তবে,": 5146,
      "▁স্ক্র": 5147,
      "রব": 5148,
      "্রমে": 5149,
      "▁তোলে": 5150,
      "▁খ্রিস্টাব্দে": 5151,
      "▁যুবক": 5152,
      "চু": 5153,
      "▁সময়,": 5154,
      "▁অনুরূপ": 5155,
      "▁মোক": 5156,
      "িনার": 5157,
      "▁ইয়া": 5158,
      "ঘর": 5159,
      "তেন।": 5160,
      "▁২:": 5161,
      "▁আরম্ভ": 5162,
      "▁পাঠানো": 5163,
      "▁দর্শন": 5164,
      "▁বলি": 5165,
      "▁আদালত": 5166,
      "▁পার্শ্ব": 5167,
      "▁প্লে": 5168,
      "বাব": 5169,
      "▁গিয়েছিল।": 5170,
      "ষ্ঠানিক": 5171,
      "▁লাইসেন্স": 5172,
      "াঙ্গ": 5173,
      "▁আসল": 5174,
      "▁উত্তরে": 5175,
      "▁অনলাইন": 5176,
      "▁বলেছিলেন,": 5177,
      "▁প্রাক্তন": 5178,
      "ক্রমে": 5179,
      "▁অবদান": 5180,
      "▁কানা": 5181,
      "▁কয়েকজন": 5182,
      "▁অ্যাকা": 5183,
      "▁সমাধ": 5184,
      "▁টম": 5185,
      "▁কারন": 5186,
      "-হ": 5187,
      "স্ফ": 5188,
      "▁কর,": 5189,
      "▁প্রশাসনিক": 5190,
      "▁ধর্মের": 5191,
      "▁সমৃদ্ধ": 5192,
      "▁মুহূর্ত": 5193,
      "▁ঘুম": 5194,
      "▁নিষে": 5195,
      "▁-এর": 5196,
      "▁পিতার": 5197,
      "▁জানেন": 5198,
      "▁শিখে": 5199,
      "▁জমিদার": 5200,
      "ক্ল": 5201,
      "াদে": 5202,
      "▁ঘোষণ": 5203,
      "▁উপজেলার": 5204,
      "▁সোন": 5205,
      "▁২০০৫": 5206,
      "ষ্ট্রে": 5207,
      "▁কৌ": 5208,
      "▁মঙ্গল": 5209,
      "▁অশ": 5210,
      "▁আরেকটা": 5211,
      "মেন": 5212,
      "ল,": 5213,
      "ষ্ম": 5214,
      "▁দশকের": 5215,
      "▁অধ্যায়": 5216,
      "▁বুদ্ধি": 5217,
      "▁কংগ্রেসের": 5218,
      "▁জাদু": 5219,
      "▁কতই": 5220,
      "▁কমে": 5221,
      "▁সিটি": 5222,
      "▁কণ্ঠ": 5223,
      "য়েরা": 5224,
      "▁অনুপ": 5225,
      "▁৩২": 5226,
      "▁আগুন": 5227,
      "▁মণ্ডলীতে": 5228,
      "▁২,": 5229,
      "▁করুন,": 5230,
      "▁কাছাকাছি": 5231,
      "▁আত্মার": 5232,
      "দম": 5233,
      "িটাল": 5234,
      "েরিত": 5235,
      "▁ল্যাংডন": 5236,
      "▁বিচ্ছিন্ন": 5237,
      "▁হাউ": 5238,
      "▁লিখিত": 5239,
      "ডের": 5240,
      "▁স্বর্ণ": 5241,
      "▁শীঘ্রই": 5242,
      "্বান": 5243,
      "▁পৌঁছে": 5244,
      "▁বিনিয়োগ": 5245,
      "▁সম্পাদক": 5246,
      "▁শত্রু": 5247,
      "ার্ট": 5248,
      "▁আবে": 5249,
      "▁করিল": 5250,
      "▁গাজ": 5251,
      "▁(হিত": 5252,
      "▁ছাড়াও": 5253,
      "▁জেনে": 5254,
      "▁পরিষদ": 5255,
      "শোনা": 5256,
      "▁ওটা": 5257,
      "ফের": 5258,
      "িকর": 5259,
      "ঙ্ঘ": 5260,
      "লন": 5261,
      "▁বুক": 5262,
      "▁দরিদ্র": 5263,
      "দ্দিন": 5264,
      "▁অংশে": 5265,
      "▁পারেন,": 5266,
      "▁চরম": 5267,
      "▁দলে": 5268,
      "▁গিয়েছিল": 5269,
      "▁কোনও": 5270,
      "▁৩:": 5271,
      "▁সাহায্যে": 5272,
      "▁দৃষ্টিভঙ্গি": 5273,
      "্রান্ত": 5274,
      "▁চীনের": 5275,
      "-০": 5276,
      "▁বিশ্লে": 5277,
      "▁বাণিজ্যিক": 5278,
      "▁মামলা": 5279,
      "▁বিষয়বস্তু": 5280,
      "্কে": 5281,
      "▁সামগ্র": 5282,
      "▁বিশেষভাবে": 5283,
      "▁সাদ": 5284,
      "▁ভৌ": 5285,
      "পাদ": 5286,
      "▁পার্থক্য": 5287,
      "▁সমান": 5288,
      "▁পার্ক": 5289,
      "▁পাচ্": 5290,
      "ছিলাম,": 5291,
      "▁নীল": 5292,
      "তত্ত্ব": 5293,
      "তান্ত্রিক": 5294,
      "▁মেরে": 5295,
      "র্ধ্ব": 5296,
      "▁বেশি।": 5297,
      "▁কর্মসূচ": 5298,
      "▁আন্দোলনের": 5299,
      "না,": 5300,
      "▁মাধ্যমিক": 5301,
      "▁হাট": 5302,
      "▁জমা": 5303,
      "সঙ্গ": 5304,
      "▁১৮৯": 5305,
      "▁স্বাধীনতার": 5306,
      "▁শেয়ার": 5307,
      "▁উদ্ধার": 5308,
      "▁পরস্প": 5309,
      "ড়ের": 5310,
      "োশ": 5311,
      "▁কোম্পানির": 5312,
      "ড্র": 5313,
      "ব।": 5314,
      "▁সিরিজ": 5315,
      "▁পুরা": 5316,
      "তল": 5317,
      "্যো": 5318,
      "▁উপহার": 5319,
      "▁সন্ত্র": 5320,
      "াকাল": 5321,
      "▁(গীতসংহিতা": 5322,
      "▁হবেন": 5323,
      "▁সংক্ষিপ্ত": 5324,
      "▁অসং": 5325,
      "▁খরচ": 5326,
      "▁পাতা": 5327,
      "▁মাইল": 5328,
      "▁সেটি": 5329,
      "▁অধ্যাপক": 5330,
      "▁যেসব": 5331,
      "▁হলে,": 5332,
      "▁চারটি": 5333,
      "টুক": 5334,
      "▁শিখতে": 5335,
      "▁৩৩": 5336,
      "▁আন্তরিক": 5337,
      "▁দেয়ার": 5338,
      "ূত": 5339,
      "▁ব্যবসায়": 5340,
      "▁আশ্রয়": 5341,
      "▁ফেলতে": 5342,
      "▁সম্মেলন": 5343,
      "ছি.": 5344,
      "▁অভিনেতা": 5345,
      "রাধিকার": 5346,
      "▁সাবেক": 5347,
      "কারীর": 5348,
      "▁দাম": 5349,
      "▁পর্যবে": 5350,
      "ওয়্যার": 5351,
      "▁প্রোগ্রাম": 5352,
      "▁মুক্তির": 5353,
      "াবন": 5354,
      "▁সংগীত": 5355,
      "বে?": 5356,
      "▁স্বর্গীয়": 5357,
      "তিতে": 5358,
      "ীভূত": 5359,
      "▁আর্ক": 5360,
      "▁জোগ": 5361,
      "▁মণ্ডলী": 5362,
      "▁প্রত্যাখ্যান": 5363,
      "টিত": 5364,
      "▁কিশোর": 5365,
      "▁পরিস্থিতির": 5366,
      "োনেশ": 5367,
      "জান": 5368,
      "সাথে": 5369,
      "লাম": 5370,
      "▁হ্রাস": 5371,
      "লাভ": 5372,
      "▁বৈধ": 5373,
      "ফিষ": 5374,
      "▁ধারাবাহিক": 5375,
      "শিক": 5376,
      "▁তহ": 5377,
      "▁সপ্তাহের": 5378,
      "▁করি.": 5379,
      "মাল": 5380,
      "মুখ": 5381,
      "▁নির্যা": 5382,
      "ফর": 5383,
      "▁ঢাকার": 5384,
      "▁লিখেছিলেন:": 5385,
      "▁ধৈর্য": 5386,
      "গারে": 5387,
      "▁হেল": 5388,
      "তেই": 5389,
      "▁আজকের": 5390,
      "৬০": 5391,
      "▁নেন।": 5392,
      "▁আব্দ": 5393,
      "▁উত্থ": 5394,
      "▁শমূ": 5395,
      "চন্দ্র": 5396,
      "ঙে": 5397,
      "▁প্রতিষ্ঠানের": 5398,
      "▁এবার": 5399,
      "▁নিয়ন্ত্র": 5400,
      "ণে": 5401,
      "▁এড়িয়ে": 5402,
      "▁ইয়ে": 5403,
      "▁সভাপতি": 5404,
      "বিদ্যা": 5405,
      "▁\"ই": 5406,
      "▁উত্তরাধিকার": 5407,
      "িন্দা": 5408,
      "শির": 5409,
      "৪০": 5410,
      "▁ওরা": 5411,
      "▁নিরাপদ": 5412,
      "▁আফ্রিকার": 5413,
      "ককে": 5414,
      "োতে": 5415,
      "▁প্রজাত": 5416,
      "▁প্রচারণ": 5417,
      "টী": 5418,
      "▁কপি": 5419,
      "▁দু'": 5420,
      "▁আহম": 5421,
      "▁ফেব্রুয়ার": 5422,
      "কার্য": 5423,
      "▁কার্ড": 5424,
      "▁অন্তত": 5425,
      "োভিয়ে": 5426,
      "▁(প্রেরিত": 5427,
      "বনে": 5428,
      "▁মোব": 5429,
      "▁ডায়": 5430,
      "▁সার্ভিস": 5431,
      "▁মিউ": 5432,
      "▁বিমানবন্দর": 5433,
      "▁সম্রা": 5434,
      "▁নিকটবর্তী": 5435,
      "▁পরীক্ষ": 5436,
      "▁ব্যবস্থাপনা": 5437,
      "▁প্রদত্ত": 5438,
      "▁রেডিও": 5439,
      "দণ্ড": 5440,
      "াবিদ": 5441,
      "▁ফরা": 5442,
      "তরা": 5443,
      "ফিল": 5444,
      "▁গুরুতর": 5445,
      "▁জ্বাল": 5446,
      "▁আলোক": 5447,
      "▁বিতর্ক": 5448,
      "▁রক্ষ": 5449,
      "▁মনুষ্য": 5450,
      "▁ইনস্টিটিউট": 5451,
      "▁বাংলাদেশী": 5452,
      "▁অবাক": 5453,
      "ূর": 5454,
      "স্যের": 5455,
      "।-": 5456,
      "▁স্বয়ং": 5457,
      "▁চিঠি": 5458,
      "কেই": 5459,
      "▁তাপ": 5460,
      "মানের": 5461,
      "▁জানানো": 5462,
      "▁সহ্য": 5463,
      "ামার": 5464,
      "াকৃত": 5465,
      "▁এরা": 5466,
      "▁হঠ": 5467,
      "▁বিশ্বাসের": 5468,
      "াউন্ড": 5469,
      "যাত্র": 5470,
      "▁ধরণের": 5471,
      "ুধ": 5472,
      "▁মডেল": 5473,
      "াতায়": 5474,
      "্দি": 5475,
      "▁অর্থে": 5476,
      "▁শ্ব": 5477,
      "▁অব্যা": 5478,
      "▁আত": 5479,
      "▁রাস্তায়": 5480,
      "▁ব্যস্ত": 5481,
      "থার": 5482,
      "▁এটিকে": 5483,
      "▁মোকাব": 5484,
      "▁দেশটির": 5485,
      "▁গভর্ন": 5486,
      "উপ": 5487,
      "োয়": 5488,
      "▁ঊ": 5489,
      "দ্বীপ": 5490,
      "▁সংবাদপত্র": 5491,
      "বেন।": 5492,
      "োগ্রা": 5493,
      "▁সভায়": 5494,
      "▁শিশ": 5495,
      "▁উচিত?": 5496,
      "▁চাঁ": 5497,
      "▁শিশুদের": 5498,
      "▁হোসেন": 5499,
      "▁ওঠে।": 5500,
      "▁জন।": 5501,
      "▁গ্যাস": 5502,
      "বে।\"": 5503,
      "▁টেক": 5504,
      "শিক্ষ": 5505,
      "▁পান।": 5506,
      "▁গর্ভ": 5507,
      "সেন": 5508,
      "▁জনের": 5509,
      "▁কিন": 5510,
      "▁সৎ": 5511,
      "▁একদিন": 5512,
      "▁প্রতিবেশ": 5513,
      "▁রাস": 5514,
      "▁দিয়েছিল।": 5515,
      "্যালে": 5516,
      "▁দরজা": 5517,
      "▁আনন্দিত": 5518,
      "▁২০০৪": 5519,
      "▁কমিটির": 5520,
      "▁প্রচণ্ড": 5521,
      "▁আগ্রহী": 5522,
      "▁মেডিক": 5523,
      "▁ইম": 5524,
      "▁(আদি": 5525,
      "লোম": 5526,
      "▁প্রত্ন": 5527,
      "▁ইলেক": 5528,
      "টাতে": 5529,
      "▁সম্পাদন": 5530,
      "ুষ্ট": 5531,
      "▁৫.": 5532,
      "▁প্রভৃতি": 5533,
      "▁বিরাট": 5534,
      "▁উঁচ": 5535,
      "্কা": 5536,
      "▁করবে,": 5537,
      "▁প্রকাশনা": 5538,
      "▁১৮৮": 5539,
      "▁সোভিয়ে": 5540,
      "▁মন্ত্রী": 5541,
      "▁গ্রামের": 5542,
      "....": 5543,
      "▁অফিসার": 5544,
      "▁ফসল": 5545,
      "▁জানার": 5546,
      "▁ভেতরে": 5547,
      "▁দিন।": 5548,
      "কাণ্ড": 5549,
      "▁যৌথ": 5550,
      "▁সাড়া": 5551,
      "বোন": 5552,
      "▁স্থির": 5553,
      "▁সমাপ্ত": 5554,
      "▁লাগে": 5555,
      "▁চীনা": 5556,
      "▁বেন": 5557,
      "▁এসেছে।": 5558,
      "▁ছু": 5559,
      "ণ্ডিত": 5560,
      "▁পরিশোধ": 5561,
      "▁করিব": 5562,
      "িক,": 5563,
      "মন্ড": 5564,
      "▁ছিলো": 5565,
      "▁ট্রেন": 5566,
      "▁পার্টি": 5567,
      "▁জনসাধারণ": 5568,
      "▁মেইল": 5569,
      "▁নামকরণ": 5570,
      "▁স্বল্প": 5571,
      "▁ব্যক্তিত্ব": 5572,
      "▁নির্বাচনের": 5573,
      "ুগে": 5574,
      "▁বেত": 5575,
      "▁পরে,": 5576,
      "▁ইল": 5577,
      "▁গ্রীষ্ম": 5578,
      "▁সংস্থার": 5579,
      "▁সম্প্রদায়": 5580,
      "▁জনগোষ্ঠ": 5581,
      "▁অজ": 5582,
      "▁জৈ": 5583,
      "▁মধ্যেই": 5584,
      "▁দিয়েছিল": 5585,
      "▁করেছেন:": 5586,
      "▁অনেকেই": 5587,
      "৭০": 5588,
      "▁ইউনিভার্স": 5589,
      "ছুর": 5590,
      "▁দেখানোর": 5591,
      "▁কেবলমাত্র": 5592,
      "-য": 5593,
      "▁শাসক": 5594,
      "েক্টর": 5595,
      "▁পিটার": 5596,
      "▁ইন্দোনেশ": 5597,
      "সান": 5598,
      "▁ভূমিক": 5599,
      "াটা": 5600,
      "▁করছে,": 5601,
      "াউন": 5602,
      "▁সঞ্চ": 5603,
      "ীতিতে": 5604,
      "▁উঠতে": 5605,
      "▁বিকা": 5606,
      "▁যাজ": 5607,
      "▁পালিয়ে": 5608,
      "্বিত": 5609,
      "▁কখনোই": 5610,
      "▁বিস্তারিত": 5611,
      "োরা": 5612,
      "▁আইস": 5613,
      "▁বাইবেলে": 5614,
      "▁বিজয়ী": 5615,
      "▁সুস্থ": 5616,
      "▁কিমি)": 5617,
      "▁প্রতিযোগিতা": 5618,
      "▁লেখার": 5619,
      "▁ফিরিয়ে": 5620,
      "▁বাবার": 5621,
      "িলি": 5622,
      "▁আবদুল": 5623,
      "▁বাম": 5624,
      "র্মে": 5625,
      "উই": 5626,
      "▁পট": 5627,
      "দূত": 5628,
      "▁করছ": 5629,
      "▁মঞ্চ": 5630,
      "▁সাবধান": 5631,
      "▁রো": 5632,
      "▁কর্মী": 5633,
      "▁গ্রহ": 5634,
      "▁মায়ের": 5635,
      "▁\"আমার": 5636,
      "▁উপাত্ত.": 5637,
      "▁স্ল": 5638,
      "▁মেক্স": 5639,
      "▁গ্রন্": 5640,
      "▁ডিভ": 5641,
      "▁হু": 5642,
      "১০": 5643,
      "▁ছবির": 5644,
      "▁পরিবর্তিত": 5645,
      "▁রাষ্ট্রের": 5646,
      "-দ": 5647,
      "▁ন্যাশনাল": 5648,
      "▁নাগরিকদের": 5649,
      "▁ইচ্ছু": 5650,
      "বিচার": 5651,
      "সিং": 5652,
      "▁বৃহত্তম": 5653,
      "▁অতিক্রম": 5654,
      "▁ভেঙে": 5655,
      "▁অন্তর্গত": 5656,
      "▁পাবলিক": 5657,
      "▁মিশ্র": 5658,
      "জিস্ট": 5659,
      "র্গে": 5660,
      "োরে": 5661,
      "▁দম্প": 5662,
      "▁পৌলের": 5663,
      "▁সুখী": 5664,
      "▁ইরা": 5665,
      "▁সম্ভাব্য": 5666,
      "▁উৎপন্ন": 5667,
      "▁কাহিনী": 5668,
      "▁সা.": 5669,
      "▁মোকাবিলা": 5670,
      "▁লেগে": 5671,
      "২৫": 5672,
      "ঞ্চলিক": 5673,
      "▁ফরাসি": 5674,
      "-পূর্ব": 5675,
      "শিত": 5676,
      "▁বিশ্বব্যাপী": 5677,
      "▁জীবনযাপন": 5678,
      "লেট": 5679,
      "▁দক্ষিণে": 5680,
      "▁সম্ভাবনা": 5681,
      "▁(লূক": 5682,
      "▁শহীদ": 5683,
      "▁সন্তানের": 5684,
      "▁সুতরা": 5685,
      "▁সীমাবদ্ধ": 5686,
      "▁সন্ত্রাস": 5687,
      "ুরুর": 5688,
      "ীকৃত": 5689,
      "▁স্বপ্ন": 5690,
      "▁সুতরাং": 5691,
      "▁সভার": 5692,
      "হর": 5693,
      "▁খুঁজ": 5694,
      "▁পরিকল্প": 5695,
      "বিতে": 5696,
      "ার্স": 5697,
      "▁(৩)": 5698,
      "▁উপস্থাপন": 5699,
      "ধে": 5700,
      "▁অভিনেত্রী": 5701,
      "▁সিনে": 5702,
      "ীয়রা": 5703,
      "▁আহ্বান": 5704,
      "▁ঘনিষ্ঠ": 5705,
      "▁বন্দর": 5706,
      "▁লম্বা": 5707,
      "্রাহ": 5708,
      "দ্দীন": 5709,
      "াপিত": 5710,
      "▁এটার": 5711,
      "▁খ্রিস্টের": 5712,
      "স্র": 5713,
      "▁মস্ত": 5714,
      "বাংল": 5715,
      "▁ছবিটি": 5716,
      "ফট": 5717,
      "▁ব্রাজ": 5718,
      "▁মৌসু": 5719,
      "▁আর্ম": 5720,
      "▁৩৫": 5721,
      "▁আফ্রিক": 5722,
      "▁প্রশাসন": 5723,
      "কির": 5724,
      "▁ঐশিক": 5725,
      "ওয়াল": 5726,
      "▁প্রকার": 5727,
      "▁প্রচেষ্ট": 5728,
      "▁কাউন্সিল": 5729,
      "াইনে": 5730,
      "▁রচিত": 5731,
      "▁বিচ": 5732,
      "োমীয়": 5733,
      "ল।": 5734,
      "▁সুলতান": 5735,
      "▁খ্রীষ্টের": 5736,
      "শ্বাস": 5737,
      "▁পেছনে": 5738,
      "▁কতটা": 5739,
      "▁রোড": 5740,
      "▁(ব": 5741,
      "▁নিশ্চয়ই": 5742,
      "▁অ্যাকাউন্ট": 5743,
      "▁তোর": 5744,
      "▁ঘন্টা": 5745,
      "স্থিত": 5746,
      "▁গ্রেপ্ত": 5747,
      "▁শয়তানের": 5748,
      "▁ডাক্তার": 5749,
      "নু": 5750,
      "▁(ইংরেজি)": 5751,
      "▁সীমানা": 5752,
      "▁সাইট": 5753,
      "▁ভি": 5754,
      "▁মিশনার": 5755,
      "▁বাক্যের": 5756,
      "▁পরিচিতি": 5757,
      "▁সোভিয়েত": 5758,
      "১৮": 5759,
      "▁পের": 5760,
      "▁পানির": 5761,
      "▁যাহা": 5762,
      "▁চুল": 5763,
      "▁যিহুদি": 5764,
      "▁'স": 5765,
      "▁চার্চ": 5766,
      "▁ভদ্র": 5767,
      "জ্জ্বল": 5768,
      "▁মোবাইল": 5769,
      "▁টাইম": 5770,
      "▁আঞ্চলিক": 5771,
      "▁মূ": 5772,
      "▁নকশা": 5773,
      "▁ইজ": 5774,
      "তুমি": 5775,
      "▁হত।": 5776,
      "▁বন্য": 5777,
      "▁ম্যাক": 5778,
      "▁চ্যানেল": 5779,
      "▁অবৈ": 5780,
      "▁বিহার": 5781,
      "▁ইন্ডিয়া": 5782,
      "্বেষ": 5783,
      "▁রাজনীতিবিদ": 5784,
      "▁বাঙালি": 5785,
      "্য।": 5786,
      "▁ঘৃণা": 5787,
      "ভিল": 5788,
      "চনায়": 5789,
      "▁গি": 5790,
      "▁পরিবর্তনের": 5791,
      "্বিক": 5792,
      "▁আরোপ": 5793,
      "▁সর্বাধিক": 5794,
      "▁উৎসব": 5795,
      "▁মন্ত্রণালয়": 5796,
      "▁মনের": 5797,
      "▁ঠিকানা": 5798,
      "▁পরিশ্রম": 5799,
      "▁বিশেষজ্ঞ": 5800,
      "▁থেকে।": 5801,
      "▁সুরক্ষা": 5802,
      "▁ঘণ": 5803,
      "▁তালিকায়": 5804,
      "▁কয়েকটা": 5805,
      "খার": 5806,
      "▁বিয়ের": 5807,
      "িপূর্ণ": 5808,
      "মূল": 5809,
      "য়েদের": 5810,
      "▁অপার": 5811,
      "▁অ্যাড": 5812,
      "োক্ত": 5813,
      "▁রেলওয়ে": 5814,
      "▁সচিব": 5815,
      "▁ওয়াল": 5816,
      "কারীরা": 5817,
      "▁খ্রিস্টানদের": 5818,
      "▁পরিষদের": 5819,
      "▁চতুর্থ": 5820,
      "▁উন্মুক্ত": 5821,
      "▁নৃত": 5822,
      "▁টিভি": 5823,
      "▁কয়": 5824,
      "▁সংস্কৃত": 5825,
      "▁শতাব্দীতে": 5826,
      "▁অগ্রগামী": 5827,
      "▁গ্রহণের": 5828,
      "▁বাঁধ": 5829,
      "▁ভর": 5830,
      "▁খাল": 5831,
      "োসিয়ে": 5832,
      "▁রাত": 5833,
      "▁(রোমীয়": 5834,
      "▁বৃদ্ধির": 5835,
      "▁সপ্তাহে": 5836,
      "▁কাগজ": 5837,
      "▁হঠাৎ": 5838,
      "১৫": 5839,
      "▁আসেন": 5840,
      "▁মেঘ": 5841,
      "ফিষীয়": 5842,
      "▁রবার্ট": 5843,
      "▁অসাধারণ": 5844,
      "রীণ": 5845,
      "▁সাম্রাজ্যের": 5846,
      "▁হন,": 5847,
      "▁পাঞ্জ": 5848,
      "ভূমির": 5849,
      "সারিত": 5850,
      "▁নাট্য": 5851,
      "▁বলেছিল": 5852,
      "▁বিদ্যাল": 5853,
      "ম,": 5854,
      "▁)": 5855,
      "▁৬:": 5856,
      "ার্": 5857,
      "▁জিজ্ঞাসা": 5858,
      "বয়স্ক": 5859,
      "▁অপেক্ষ": 5860,
      "্যস্ত": 5861,
      "▁মৃত্ত": 5862,
      "▁জাল": 5863,
      "▁কৃষ্ণ": 5864,
      "ান্দ": 5865,
      "▁স্তর": 5866,
      "িকর্ত": 5867,
      "ভেন": 5868,
      "ন্টি": 5869,
      "▁জীবনকে": 5870,
      "শ্ম": 5871,
      "▁প্রশ্নের": 5872,
      "▁ঢাকায়": 5873,
      "▁ওয়ার্ড": 5874,
      "▁তাকিয়ে": 5875,
      "▁বাবাম": 5876,
      "▁সাজ": 5877,
      "▁বৃষ্টি": 5878,
      "▁চৌধুরী": 5879,
      "যুগ": 5880,
      "▁থাকেন": 5881,
      "▁অত্যা": 5882,
      "▁ভর্তি": 5883,
      "মিয়": 5884,
      "▁কর্তৃত্ব": 5885,
      "▁সবাইকে": 5886,
      "▁অর্পণ": 5887,
      "▁সীমা": 5888,
      "▁৯০": 5889,
      "▁শ্রীল": 5890,
      "কতা": 5891,
      "▁গৃহীত": 5892,
      "▁শারীরিক": 5893,
      "▁টেক্স": 5894,
      "▁ক্রিকেটার": 5895,
      "পাশে": 5896,
      "▁সম্মুখীন": 5897,
      "▁বৃহৎ": 5898,
      "▁আবাস": 5899,
      "▁আকার": 5900,
      "▁নেমে": 5901,
      "▁ওখানে": 5902,
      "▁অবসর": 5903,
      "▁গ্রিক": 5904,
      "▁অ্যাস": 5905,
      "▁বিদেশী": 5906,
      "▁আহত": 5907,
      "▁যুক্তরাষ্ট্রে": 5908,
      "▁গর্ব": 5909,
      "▁বিশ্ববিদ্যালয়ে": 5910,
      "র্ঘট": 5911,
      "▁চন্দ্র": 5912,
      "▁সহযোগিতা": 5913,
      "▁তত্ত্বাব": 5914,
      "গতভাবে": 5915,
      "▁নম্বর": 5916,
      "▁কাটিয়ে": 5917,
      "▁প্রাণী": 5918,
      "ডেমি": 5919,
      "▁শন": 5920,
      "-জ": 5921,
      "৫;": 5922,
      "▁মুর": 5923,
      "▁নিল": 5924,
      "▁মানবজাতির": 5925,
      "▁সংরক্ষিত": 5926,
      "ইউ": 5927,
      "▁ইতিহাসের": 5928,
      "▁শিল": 5929,
      "▁অবশেষে": 5930,
      "▁সাহস": 5931,
      "▁শেষের": 5932,
      "▁ছোট্ট": 5933,
      "পন্থ": 5934,
      "▁নীচে": 5935,
      "লে,": 5936,
      "▁ধ্য": 5937,
      "২৩": 5938,
      "▁সাদা": 5939,
      "▁চান?": 5940,
      "▁সন্": 5941,
      "সমস্ত": 5942,
      "▁নেপ": 5943,
      "▁করেন?": 5944,
      "▁দৃষ্টান্ত": 5945,
      "▁আগে,": 5946,
      "▁১৯৯০": 5947,
      "▁ফিল্ম": 5948,
      "▁স্নাতক": 5949,
      "ুশ": 5950,
      "▁খ্যা": 5951,
      "▁আসন": 5952,
      "▁হয়েছিলেন": 5953,
      "সুম": 5954,
      "▁এইসব": 5955,
      "েপ": 5956,
      "▁জীবিত": 5957,
      "▁সত্যিকার": 5958,
      "▁অনুসারে,": 5959,
      "▁নমুনা": 5960,
      "ডা": 5961,
      "যন্ত্র": 5962,
      "▁তহবিল": 5963,
      "▁ফাই": 5964,
      "▁৭০": 5965,
      "মাপ": 5966,
      "▁জ্যাক": 5967,
      "▁কমিশনের": 5968,
      "স\"": 5969,
      "▁জয়ী": 5970,
      "▁কর্পোর": 5971,
      "▁মধ": 5972,
      "▁শোনা": 5973,
      "▁\"এক": 5974,
      "▁হামলা": 5975,
      "টল": 5976,
      "▁লোকদের": 5977,
      "▁মাথায়": 5978,
      "▁ফেডার": 5979,
      "▁কমান্ড": 5980,
      "ত্যাগ": 5981,
      "্টিফ": 5982,
      "▁দরকার।": 5983,
      "▁সংশোধন": 5984,
      "▁জ্যো": 5985,
      "্ল্ড": 5986,
      "▁৭.": 5987,
      "▁১২:১": 5988,
      "৪৪": 5989,
      "দ্ভ": 5990,
      "▁উদ্দেশে": 5991,
      "▁বেদ": 5992,
      "▁প্রধানত": 5993,
      "▁প্রতিফল": 5994,
      "▁উদ্ভিদ": 5995,
      "িয়েটার": 5996,
      "▁তৈরির": 5997,
      "সম্ম": 5998,
      "▁স্থাপত্য": 5999,
      "▁ফু": 6000,
      "▁কোথাও": 6001,
      "▁হান": 6002,
      "▁ইয়র্ক": 6003,
      "গির": 6004,
      "য়নে": 6005,
      "▁না;": 6006,
      "▁ব্যাং": 6007,
      "▁চলা": 6008,
      "▁পিতাম": 6009,
      "▁স্বরূপ": 6010,
      "▁২০০৩": 6011,
      "বাজার": 6012,
      "▁আছ": 6013,
      "দেশে": 6014,
      "াকালীন": 6015,
      "▁দিত": 6016,
      "▁বড়ো": 6017,
      "▁প্রতিযোগিতায়": 6018,
      "৭৫": 6019,
      "▁ধার্মিক": 6020,
      "য়ী": 6021,
      "▁বীর": 6022,
      "▁দেবেন": 6023,
      "▁বলছে": 6024,
      "▁উল্লিখিত": 6025,
      "▁মতে": 6026,
      "▁ডির": 6027,
      "▁যুগের": 6028,
      "▁গোপন": 6029,
      "▁সিক": 6030,
      "▁বিরোধিতা": 6031,
      "▁সম্মেলনে": 6032,
      "৮০": 6033,
      "▁অবস্থার": 6034,
      "লোক": 6035,
      "াংশ": 6036,
      "▁ট্যা": 6037,
      "▁অভ্যাস": 6038,
      "▁কোন্": 6039,
      "▁লিঙ্গ": 6040,
      "▁পুনঃ": 6041,
      "▁মাংস": 6042,
      "▁৬.": 6043,
      "▁রাখে।": 6044,
      "েম্বরে": 6045,
      "▁পদের": 6046,
      "▁মায়": 6047,
      "্যাণ": 6048,
      "▁টুক": 6049,
      "▁গ্রাহ": 6050,
      "▁মুহাম্মদ": 6051,
      "▁ছবিতে": 6052,
      "▁ডিজিটাল": 6053,
      "▁জানাতে": 6054,
      "বাণ": 6055,
      "▁লক্ষণ": 6056,
      "▁নেতৃত্বে": 6057,
      "▁শিরোনাম": 6058,
      "▁ব্লগে": 6059,
      "যথ": 6060,
      "▁করেই": 6061,
      "▁পেল": 6062,
      "▁হর": 6063,
      "▁ভূমিকম্প": 6064,
      "ংরা": 6065,
      "▁গিল": 6066,
      "তীত": 6067,
      "গাঁ": 6068,
      "▁দুর্ন": 6069,
      "▁করেছিলেন:": 6070,
      "▁(১৯৫": 6071,
      "▁প্রথা": 6072,
      "ামীণ": 6073,
      "৬;": 6074,
      "িহিত": 6075,
      "জিং": 6076,
      "▁আছে.": 6077,
      "▁কারনে": 6078,
      "▁প্রকল্পের": 6079,
      "ৌক": 6080,
      "শ্রে": 6081,
      "▁ইউনিয়নের": 6082,
      "▁আটক": 6083,
      "▁ইস্রায়েলের": 6084,
      "▁হক": 6085,
      "▁সান্ত্বনা": 6086,
      "িগ্ন": 6087,
      "▁অধিবাস": 6088,
      "▁তাড়াত": 6089,
      "▁সাক্ষিরা": 6090,
      "▁পশ্চিমে": 6091,
      "▁অভিষেক": 6092,
      "গন": 6093,
      "▁ম্যাগ": 6094,
      "▁বেসরকারি": 6095,
      "▁সহজেই": 6096,
      "▁পোল": 6097,
      "▁লাখ": 6098,
      "কেরা": 6099,
      "▁মুদ্রা": 6100,
      "দায়": 6101,
      "▁রাষ্ট্রীয়": 6102,
      "চ্ছে।": 6103,
      "▁ভয়েসেস": 6104,
      "▁ভাইবোন": 6105,
      "▁শক্তির": 6106,
      "▁থেকে,": 6107,
      "▁দিয়েছেন।": 6108,
      "জ্ঞানিক": 6109,
      "▁টিকে": 6110,
      "▁মেট্র": 6111,
      "প্ল": 6112,
      "▁শাসনের": 6113,
      "পেক্ষ": 6114,
      "ফোর্ড": 6115,
      "▁সংঘটিত": 6116,
      "▁ক্যাথলিক": 6117,
      "শালেম": 6118,
      "▁বিপরীতে": 6119,
      "▁পুলিশের": 6120,
      "ধ্যেই": 6121,
      "বাড়": 6122,
      "ান্ডার": 6123,
      "▁বন্ধুত্ব": 6124,
      "▁শুরুর": 6125,
      "▁গ্রামীণ": 6126,
      "▁সিনেমা": 6127,
      "▁মেশ": 6128,
      "▁গানের": 6129,
      "প্তর": 6130,
      "▁কূ": 6131,
      "্বার": 6132,
      "▁প্রেমের": 6133,
      "▁কাপড়": 6134,
      "▁আ্য": 6135,
      "▁অন্যেরা": 6136,
      "▁কলেজে": 6137,
      "▁শুরুতে": 6138,
      "▁পরীক্ষার": 6139,
      "▁ইরানের": 6140,
      "৮;": 6141,
      "▁বিধি": 6142,
      "াই,": 6143,
      "▁স্টেড": 6144,
      "৬৬": 6145,
      "▁স্কুলের": 6146,
      "▁হোন": 6147,
      "▁এটির": 6148,
      "▁নথি": 6149,
      "▁শব্দটি": 6150,
      "▁প্রমাণিত": 6151,
      "▁অতীত": 6152,
      "▁ক্ষেত্রের": 6153,
      "▁পর্যবেক্ষণ": 6154,
      "▁সৃষ্টিকর্ত": 6155,
      "▁দ্রব্য": 6156,
      "ীড়া": 6157,
      "২৪": 6158,
      "▁মুখ্য": 6159,
      "ধানে": 6160,
      "▁হিউ": 6161,
      "▁ইভ": 6162,
      "▁অভিব": 6163,
      "▁চেয়েও": 6164,
      "▁স্থাপিত": 6165,
      "▁উপন্যাস": 6166,
      "▁৩৭": 6167,
      "▁আনন্দের": 6168,
      "▁মৎস": 6169,
      "যোগী": 6170,
      "্টর": 6171,
      "▁হয়?": 6172,
      "▁আওয়": 6173,
      "▁অব্রাহ": 6174,
      "ত্যার": 6175,
      "বিন": 6176,
      "▁নিয়োজিত": 6177,
      "▁অভিবাস": 6178,
      "▁কেটে": 6179,
      "▁নিরী": 6180,
      "জির": 6181,
      "▁কুল": 6182,
      "▁করায়": 6183,
      "▁নিচের": 6184,
      "▁বিশ্লেষণ": 6185,
      "▁সিঙ্গ": 6186,
      "▁\"ন": 6187,
      "▁প্রবণ": 6188,
      "ীর্ণ": 6189,
      "▁উঁচু": 6190,
      "উন্ড": 6191,
      "ামেন্ট": 6192,
      "▁বিধানসভা": 6193,
      "▁আওতায়": 6194,
      "▁উল্লেখিত": 6195,
      "▁অবৈধ": 6196,
      "তুল": 6197,
      "১৩": 6198,
      "▁স্বাগত": 6199,
      "▁পরিবর্তে,": 6200,
      "▁উদ্বিগ্ন": 6201,
      "ুলিপি": 6202,
      "▁ভিত্তিক": 6203,
      "▁সন্ধ": 6204,
      "▁শস্য": 6205,
      "▁২০১৯": 6206,
      "▁দণ্ড": 6207,
      "হারা": 6208,
      "াভ": 6209,
      "েমে": 6210,
      "কাঠ": 6211,
      "▁(যিশ": 6212,
      "▁ল্যাট": 6213,
      "▁লাইব্র": 6214,
      "▁পাদ": 6215,
      "▁বিকল্প": 6216,
      "▁কর্তৃপক্ষের": 6217,
      "▁খেলে": 6218,
      "▁সংঘর্ষ": 6219,
      "মাস": 6220,
      "ছে?": 6221,
      "▁করেন:": 6222,
      "▁বিতরণ": 6223,
      "▁জারি": 6224,
      "▁নিষ্ঠ": 6225,
      "▁সাহায্যের": 6226,
      "▁যেমন,": 6227,
      "বাহী": 6228,
      "'।": 6229,
      "ক্ক": 6230,
      "্টেন": 6231,
      "▁একসঙ্গে": 6232,
      "▁চাই।": 6233,
      "▁মিলিত": 6234,
      "ড়ানো": 6235,
      "▁রক্ষণ": 6236,
      "▁২০০২": 6237,
      "▁মৌসুমে": 6238,
      "▁প্রাস": 6239,
      "▁৫:২": 6240,
      "▁ঘটন": 6241,
      "াসমূহ": 6242,
      "▁প্রকৃতপক্ষে": 6243,
      "বর্ণ": 6244,
      "মো": 6245,
      "মিতে": 6246,
      "াত্ত্বিক": 6247,
      "কেও": 6248,
      "▁৩৪": 6249,
      "▁ক্ষতিগ্রস্ত": 6250,
      "▁নারীর": 6251,
      "বছ": 6252,
      "▁দেখি": 6253,
      "▁যুক্তরাজ": 6254,
      "▁১৯৯১": 6255,
      "▁হাসপাতাল": 6256,
      "▁করুণ": 6257,
      "রায়েল": 6258,
      "▁হেই": 6259,
      "টি,": 6260,
      "▁প্রায়শ": 6261,
      "▁মতামত": 6262,
      "ফোন": 6263,
      "▁১:২": 6264,
      "▁ছিল?": 6265,
      "▁করেছিলাম": 6266,
      "জল": 6267,
      "াইস": 6268,
      "ক্ষেত্রে": 6269,
      "্যান্ডের": 6270,
      "▁চাম": 6271,
      "▁দিবস": 6272,
      "য়দ": 6273,
      "ঙ্কার": 6274,
      "▁তিনি।": 6275,
      "▁সূর্য": 6276,
      "ছাত্র": 6277,
      "▁১৯৯৬": 6278,
      "▁ফ্রে": 6279,
      "পো": 6280,
      "১৭": 6281,
      "▁২:২": 6282,
      "নি,": 6283,
      "▁রাজস্ব": 6284,
      "▁প্রজাতির": 6285,
      "▁যথাযথ": 6286,
      "▁থিয়েটার": 6287,
      "▁ওয়ার্ল্ড": 6288,
      "▁করছি।": 6289,
      "▁চাও": 6290,
      "▁মনোনয়ন": 6291,
      "▁আছেন": 6292,
      "▁জানায়": 6293,
      "▁ইন্টারন": 6294,
      "▁জেলায়": 6295,
      "কট": 6296,
      "▁বাড়ির": 6297,
      "▁প্রজাতন্ত্র": 6298,
      "▁গভর্নর": 6299,
      "▁অর": 6300,
      "▁ইচ্ছুক": 6301,
      "▁ছিলাম": 6302,
      "▁বেরিয়ে": 6303,
      "▁হওয়ায়": 6304,
      "▁ক্ষমতার": 6305,
      "▁মহাস": 6306,
      "▁তাড়াতাড়ি": 6307,
      "▁যিরূশালেম": 6308,
      "াক্রমে": 6309,
      "▁লীগের": 6310,
      "▁সম্রাট": 6311,
      "▁জেম": 6312,
      "▁সর্বশেষ": 6313,
      "▁জাতীয়তাব": 6314,
      "▁অ্যাম": 6315,
      "▁নাস": 6316,
      "র্জন": 6317,
      "▁আস্ত": 6318,
      "▁আসছে।": 6319,
      "▁অভিহিত": 6320,
      "▁করবে?": 6321,
      "▁নাটক": 6322,
      "দ্ভুত": 6323,
      "কেন্দ্র": 6324,
      "▁অন্যায়": 6325,
      "▁পরিমাণে": 6326,
      "-চ": 6327,
      "পতির": 6328,
      "▁পদ্ধতিতে": 6329,
      "▁শনাক্ত": 6330,
      "দাপ্রভ": 6331,
      "রন": 6332,
      "▁০": 6333,
      "▁অবল": 6334,
      "▁মিলে": 6335,
      "২২": 6336,
      "▁গ্রেপ্তার": 6337,
      "▁সরে": 6338,
      "▁সকাল": 6339,
      "মাধ্য": 6340,
      "▁অহ": 6341,
      "ংসের": 6342,
      "▁আসেন।": 6343,
      "▁ঘরের": 6344,
      "▁সুপারিশ": 6345,
      "ফ্র": 6346,
      "বিষয়": 6347,
      "▁ধ্যান": 6348,
      "ায়ণ": 6349,
      "গুলো]": 6350,
      "▁পিছ": 6351,
      "লেন": 6352,
      "িনিয়ার": 6353,
      "▁ব্রো": 6354,
      "▁বার্তার": 6355,
      "েব": 6356,
      "▁যো": 6357,
      "▁চিন": 6358,
      "▁দিয়েছেন": 6359,
      "▁দাবী": 6360,
      "▁করেছি।": 6361,
      "▁পদক": 6362,
      "▁ইতিহাসে": 6363,
      "▁সময়ে,": 6364,
      "▁অভিযান": 6365,
      "▁উপ-ধারা": 6366,
      "▁বলব": 6367,
      "▁অনুষ্ঠানে": 6368,
      "▁ছাড়াই": 6369,
      "মু": 6370,
      "ালয়": 6371,
      "▁হাতি": 6372,
      "শালী": 6373,
      "▁রাজার": 6374,
      "▁টেবিল": 6375,
      "▁গির্জ": 6376,
      "▁সড়ক": 6377,
      "▁ইসলামী": 6378,
      "▁কোম্পান": 6379,
      "▁একাডেমি": 6380,
      "লোড": 6381,
      "▁জীবন.": 6382,
      "▁অভিযুক্ত": 6383,
      "▁প্রকৌশল": 6384,
      "-১৮": 6385,
      "▁আবারও": 6386,
      "াকুর": 6387,
      "স্প্যানিশ": 6388,
      "▁অসংখ্য": 6389,
      "ঙ্কা": 6390,
      "▁পারবেন।": 6391,
      "▁পাথর": 6392,
      "▁প্রদর্শিত": 6393,
      "▁চুপ": 6394,
      "▁সংগঠনের": 6395,
      "▁নিষেধা": 6396,
      "▁ন্যা": 6397,
      "▁ইতাল": 6398,
      "ধ্যায়": 6399,
      "▁মেলা": 6400,
      "▁অনুশীল": 6401,
      "▁চলার": 6402,
      "টুকু": 6403,
      "▁লাভের": 6404,
      "▁খাওয়া": 6405,
      "▁একত্রিত": 6406,
      "▁বাব": 6407,
      "▁পরবর্তীকালে": 6408,
      "ীক্ষা": 6409,
      "▁ইক": 6410,
      "▁আসবে": 6411,
      "৭;": 6412,
      "▁]": 6413,
      "▁রীতি": 6414,
      "▁মুগল": 6415,
      "াত্তয়া": 6416,
      "▁প্রতিষ্ঠার": 6417,
      "▁বোমা": 6418,
      "শনার": 6419,
      "▁তাহাদের": 6420,
      "▁অসম্ভ": 6421,
      "▁রপ্তানি": 6422,
      "▁পরিস্থিতিতে": 6423,
      "▁সহায়ক": 6424,
      "ৃহীত": 6425,
      "▁স্ত্রীর": 6426,
      "▁মালয়ে": 6427,
      "▁ব্যাপকভাবে": 6428,
      "ভারে": 6429,
      "▁ছাত্রদের": 6430,
      "▁জাপানের": 6431,
      "▁এইধরনের": 6432,
      "▁প্রকাশের": 6433,
      "!\"": 6434,
      "ৈত": 6435,
      "▁অনুযায়ী,": 6436,
      "ষুধ": 6437,
      "▁আকাঙ্ক্ষা": 6438,
      "▁একসাথে": 6439,
      "▁হয়েছে?": 6440,
      "▁উচ্চতা": 6441,
      "-ন": 6442,
      "-৯": 6443,
      "▁বাচ্চা": 6444,
      "বাহিনী": 6445,
      "▁ঘোষ": 6446,
      "▁(ইব্রীয়": 6447,
      "ফেস": 6448,
      "-পশ্চ": 6449,
      "▁জ্যোতি": 6450,
      "▁১৯৪৭": 6451,
      "▁\"যে": 6452,
      "পের": 6453,
      "▁উপস্থিতি": 6454,
      "▁আচার": 6455,
      "পুরের": 6456,
      "▁নিজেই": 6457,
      "-মে": 6458,
      "▁রুশ": 6459,
      "▁সফট": 6460,
      "২৬": 6461,
      "▁সায়": 6462,
      "▁১৯৯৯": 6463,
      "▁৪৫": 6464,
      "▁বিরক্ত": 6465,
      "▁শুক": 6466,
      "াজা": 6467,
      "▁রোমান": 6468,
      "▁সংগঠিত": 6469,
      "ঞ্চিত": 6470,
      "২৮": 6471,
      "▁দুর্ঘট": 6472,
      "্যাবল": 6473,
      "▁সত্যের": 6474,
      "▁মহিলাদের": 6475,
      "স্থল": 6476,
      "▁ওয়েল": 6477,
      "▁ব্যাক": 6478,
      "▁কাঠামো": 6479,
      "লক": 6480,
      "▁মেম": 6481,
      "▁মুজিব": 6482,
      "▁দক্ষতা": 6483,
      "াক্স": 6484,
      "▁তখনই": 6485,
      "▁বিবেচিত": 6486,
      "▁কন্যা": 6487,
      "▁জিম": 6488,
      "৫%,": 6489,
      "ষম": 6490,
      "৪;": 6491,
      "িডি": 6492,
      "▁তুর্ক": 6493,
      "▁\"এই": 6494,
      "▁/": 6495,
      "▁৮০": 6496,
      "▁৪৮": 6497,
      "▁প্রবন্ধে": 6498,
      "াইয়ের": 6499,
      "▁পুস্তক": 6500,
      "উনি": 6501,
      "▁খাব": 6502,
      "▁নির্বাহী": 6503,
      "▁খেয়ে": 6504,
      "▁ভাড়া": 6505,
      "▁মিন": 6506,
      "▁গার্ড": 6507,
      "▁আকারে": 6508,
      "▁রোজ": 6509,
      "▁পরিদর্শন": 6510,
      "▁১৯৭০": 6511,
      "▁ডিস্ক": 6512,
      "▁আবেগ": 6513,
      "▁সংবিধ": 6514,
      "▁কলকাতার": 6515,
      "▁আওয়ামী": 6516,
      "▁জাত": 6517,
      "▁দেখান": 6518,
      "▁৩,": 6519,
      "▁কুমার": 6520,
      "▁ঘুরে": 6521,
      "▁বইটি": 6522,
      "▁গোল্ড": 6523,
      "দানি": 6524,
      "▁কোথায়?": 6525,
      "েও": 6526,
      "াপনের": 6527,
      "▁শ্রেণীর": 6528,
      "▁যাবার": 6529,
      "▁ঘু": 6530,
      "র্কের": 6531,
      "▁জন্যই": 6532,
      "▁ইউটিউ": 6533,
      "গরের": 6534,
      "▁হায়": 6535,
      "▁থাকেন,": 6536,
      "▁সাহিত": 6537,
      "▁আগামী": 6538,
      "▁সার্ভার": 6539,
      "প্লে": 6540,
      "▁অংশ।": 6541,
      "▁রিস": 6542,
      "▁রুপ": 6543,
      "▁অনুচ্ছেদ": 6544,
      "▁বৈজ্ঞানিক": 6545,
      "▁ব্যুর": 6546,
      "▁-র": 6547,
      "▁'অ": 6548,
      "▁\"জ": 6549,
      "▁তখনও": 6550,
      "▁শুভ": 6551,
      "▁হও": 6552,
      "▁কাটা": 6553,
      "▁বিপরীত": 6554,
      "হত্যা": 6555,
      "▁প্রল": 6556,
      "▁মুক্তিযো": 6557,
      "চিৎ": 6558,
      "▁ধরন": 6559,
      "▁পুনর্ব": 6560,
      "▁স্পষ্টত": 6561,
      "▁প্রার্থী": 6562,
      "▁নিদর্শন": 6563,
      "দীপ": 6564,
      "▁১৯৮০": 6565,
      "এব": 6566,
      "লেই": 6567,
      "▁শিষ্যদের": 6568,
      "▁ইস্ট": 6569,
      "▁মতে,": 6570,
      "▁স্টার": 6571,
      "▁ইতিবাচক": 6572,
      "সময়ের": 6573,
      "▁ম্যানে": 6574,
      "▁ওপ": 6575,
      "▁বাড়িয়ে": 6576,
      "শায়": 6577,
      "▁আদিপুস্তক": 6578,
      "ত্তির": 6579,
      "▁হুমকি": 6580,
      "▁বাইরের": 6581,
      "▁সংস্কৃতির": 6582,
      "▁ঘনত্ব": 6583,
      "▁অস্ট্রেলিয়া": 6584,
      "▁বর্ধ": 6585,
      "▁উজ্জ্বল": 6586,
      "▁ডিপ": 6587,
      "▁টিক": 6588,
      "▁রহস্য": 6589,
      "ল্ল": 6590,
      "ুনি": 6591,
      "▁কিউ": 6592,
      "▁১৯৭২": 6593,
      "▁নির্মাণের": 6594,
      "-মা": 6595,
      "১৪": 6596,
      "্টোর": 6597,
      "▁ফিফ": 6598,
      "প্তি": 6599,
      "▁লঙ্ঘ": 6600,
      "েন।\"": 6601,
      "নাট": 6602,
      "▁মানচিত্র": 6603,
      "▁জোরালো": 6604,
      "▁টাওয়ার": 6605,
      "রা,": 6606,
      "▁১০:১": 6607,
      "▁গাল": 6608,
      "▁মহাসা": 6609,
      "▁কথাবার": 6610,
      "▁কবিতা": 6611,
      "▁উপকূল": 6612,
      "▁পরিবহ": 6613,
      "▁জরিপ": 6614,
      "▁ভঙ্গ": 6615,
      "▁মাইক্র": 6616,
      "▁দৈনিক": 6617,
      "মন্ত্র": 6618,
      "▁করেছ": 6619,
      "▁সোসাইটি": 6620,
      "▁মন্ত্রণালয়ের": 6621,
      "▁সেনাবাহিনী": 6622,
      "▁প্রতিষ্ঠাতা": 6623,
      "▁কলেজের": 6624,
      "▁কর্মজীবন": 6625,
      "▁স্পর্শ": 6626,
      "▁পরিত্যাগ": 6627,
      "▁পুনরুত্থ": 6628,
      "▁আবহা": 6629,
      "▁মর্যাদা": 6630,
      "▁উদ্ভাব": 6631,
      "োদন": 6632,
      "▁চিন্তাভাব": 6633,
      "▁অব্যাহত": 6634,
      "▁এশিয়ার": 6635,
      "▁চক্র": 6636,
      "▁শিল্পী": 6637,
      "▁লিপিবদ্ধ": 6638,
      "▁কর্ণ": 6639,
      "▁খাঁ": 6640,
      "▁রাজশ": 6641,
      "▁হ্যার": 6642,
      "▁উচিৎ": 6643,
      "্যালো": 6644,
      "▁হোট": 6645,
      "▁লোককে": 6646,
      "▁পরিচালনার": 6647,
      "▁ওষুধ": 6648,
      "৭৬": 6649,
      "▁রত": 6650,
      "ুখে": 6651,
      "▁প্রজ্ঞ": 6652,
      "েশা": 6653,
      "▁ওঠে": 6654,
      "ভৌ": 6655,
      "রস": 6656,
      "▁আশ্চ": 6657,
      "▁শরীর": 6658,
      "▁সমন্বয়": 6659,
      "নাগ": 6660,
      "▁প্রণয়ন": 6661,
      "▁স্বর্গে": 6662,
      "ণিক": 6663,
      "▁বিশেষত": 6664,
      "▁কন্ট": 6665,
      "▁নেন": 6666,
      "▁চিৎকার": 6667,
      "▁ডিম": 6668,
      "▁ওহ,": 6669,
      "ধন": 6670,
      "িনি।": 6671,
      "▁গবেষ": 6672,
      "-৫": 6673,
      "িন,": 6674,
      "চারের": 6675,
      "▁পেশাদার": 6676,
      "▁তম": 6677,
      "▁খোদ": 6678,
      "াবলী": 6679,
      "▁ব্যান্ড": 6680,
      "▁ধরার": 6681,
      "▁সাম্রাজ্য": 6682,
      "▁ধরতে": 6683,
      "▁করেছে:": 6684,
      "▁সমাজে": 6685,
      "টীকা": 6686,
      "▁লোকজন": 6687,
      "▁দিল্ল": 6688,
      "▁পার্টির": 6689,
      "▁অন্যের": 6690,
      "▁ব্যাট": 6691,
      "▁ওদের": 6692,
      "▁চুরি": 6693,
      "করণের": 6694,
      "▁নিকটে": 6695,
      "৭৮": 6696,
      "াব্দের": 6697,
      "▁গল": 6698,
      "াপের": 6699,
      "▁প্রত্যক্ষ": 6700,
      "▁শমূয়েল": 6701,
      "▁কক্ষ": 6702,
      "▁পুরনো": 6703,
      "▁রাশিয়ার": 6704,
      "▁১৯৯৮": 6705,
      "▁সীমিত": 6706,
      "▁মিনিট:": 6707,
      "▁সাফল্য": 6708,
      "▁(হিতোপদেশ": 6709,
      "__": 6710,
      "৭৯": 6711,
      "্তুগ": 6712,
      "▁বুঝে": 6713,
      "▁খানের": 6714,
      "▁পরিবারে": 6715,
      "▁ধূ": 6716,
      "▁পাসওয়ার্ড": 6717,
      "▁বোল": 6718,
      "▁রুম": 6719,
      "প্রকাশ": 6720,
      "▁৮.": 6721,
      "▁(জন্ম:": 6722,
      "▁হেন": 6723,
      "নাদ": 6724,
      "▁শৌ": 6725,
      "▁টাক": 6726,
      "▁(৩": 6727,
      "▁পরিব": 6728,
      "▁সরল": 6729,
      "▁হয়েছেন।": 6730,
      "ূপে": 6731,
      "▁উদার": 6732,
      "▁বিস্ফ": 6733,
      "▁পর্তুগ": 6734,
      "থন": 6735,
      "▁শাম": 6736,
      "▁সম্বন্ধ": 6737,
      "বেলা": 6738,
      "▁সহকারে": 6739,
      "▁সম্পত্তি": 6740,
      "▁করেছিলেন?": 6741,
      "▁মিনিট)": 6742,
      "▁ব্লক": 6743,
      "▁ওয়েস্ট": 6744,
      "১;": 6745,
      "▁ইনি": 6746,
      "প্রতি": 6747,
      "২৯": 6748,
      "জ্ঞাত": 6749,
      "▁(১৯৩": 6750,
      "▁ইবনে": 6751,
      "হ্ম": 6752,
      "▁(;": 6753,
      "ারম্ভ": 6754,
      "▁জিতে": 6755,
      "্যাড": 6756,
      "▁পেন": 6757,
      "▁এগুলি": 6758,
      "▁লিন": 6759,
      "▁মেয়েদের": 6760,
      "ঙ্গার": 6761,
      "▁রেড": 6762,
      "▁প্রভু": 6763,
      "বরণ": 6764,
      "▁হিম": 6765,
      "ড়াল": 6766,
      "▁সবুজ": 6767,
      "চ্ছন্ন": 6768,
      "▁ব্যবহূত": 6769,
      "▁শ্রেণী": 6770,
      "▁ব্যবসায়ী": 6771,
      "▁রঙের": 6772,
      "▁অস্থ": 6773,
      "▁আলোচনার": 6774,
      "▁পেয়েছে।": 6775,
      "ব্যবহার": 6776,
      "খ্র": 6777,
      "▁কুকুর": 6778,
      "▁ভক্ত": 6779,
      "▁সম্পর্কের": 6780,
      "▁কের": 6781,
      "▁যুগে": 6782,
      "ড়ো": 6783,
      "▁বয়সী": 6784,
      "▁খেতে": 6785,
      "▁আইনে": 6786,
      "▁অপসারণ": 6787,
      "▁অধ্যয়নের": 6788,
      "▁বীজ": 6789,
      "্যোগ": 6790,
      "▁সহিংস": 6791,
      "▁আবু": 6792,
      "▁ভবিষ্যতে": 6793,
      "▁কিংডম": 6794,
      "▁সিম": 6795,
      "▁আবশ্য": 6796,
      "▁অনুমান": 6797,
      "▁ইতিমধ্যেই": 6798,
      "বাই": 6799,
      "▁ব্রিট": 6800,
      "২;": 6801,
      "জীবী": 6802,
      "▁\"আমরা": 6803,
      "-ল": 6804,
      "ুলি": 6805,
      "▁সৈয়দ": 6806,
      "▁অদ্ভুত": 6807,
      "▁উন্নয়নের": 6808,
      "▁ইতোম": 6809,
      "▁যায়নি।": 6810,
      "▁উইকেট": 6811,
      "▁মাদ্রাসা": 6812,
      "পত": 6813,
      "▁মেলাম": 6814,
      "১৬": 6815,
      "▁ব্যাপারটা": 6816,
      "▁ইউন": 6817,
      "▁লগ": 6818,
      "▁৭:১": 6819,
      "▁আনতে": 6820,
      "সূত্র": 6821,
      "▁তল": 6822,
      "▁সাময়িক": 6823,
      "▁(১৯৪": 6824,
      "▁আত্মীয়": 6825,
      "▁দেন,": 6826,
      "▁করুন:": 6827,
      "ছিলেন?": 6828,
      "▁সাক্ষাৎকার": 6829,
      "▁ব্যতীত": 6830,
      "গ্রামে": 6831,
      "ড়ায়": 6832,
      "▁৩৬": 6833,
      "গঠ": 6834,
      "▁করুক": 6835,
      "▁লিমি": 6836,
      "▁অলিম্পিক": 6837,
      "সাধ": 6838,
      "▁আহমদ": 6839,
      "▁ডল": 6840,
      "▁ওয়াচ": 6841,
      "ৃঙ্খ": 6842,
      "▁সহকারী": 6843,
      "▁১০.": 6844,
      "▁প্রেমময়": 6845,
      "▁রাজত্ব": 6846,
      "র্যের": 6847,
      "▁বস্তুত": 6848,
      "▁জাপান": 6849,
      "▁ক্ষয়": 6850,
      "▁করে:": 6851,
      "▁নাও": 6852,
      "াপু": 6853,
      "▁বাবিল": 6854,
      "ত্তা": 6855,
      "দেব": 6856,
      "▁শরণ": 6857,
      "▁চেক": 6858,
      "▁সমক": 6859,
      "▁সফর": 6860,
      "▁শিশুর": 6861,
      "দিক": 6862,
      "১২": 6863,
      "বাজ": 6864,
      "▁নিমিত্ত": 6865,
      "▁প্রজাতি": 6866,
      "ায়নের": 6867,
      "▁বক্তব্য": 6868,
      "▁ডক": 6869,
      "্লস": 6870,
      ":৩,": 6871,
      "▁শহর।": 6872,
      "▁আসলেই": 6873,
      "▁নিন্দা": 6874,
      "▁থাকি": 6875,
      "াদেশিক": 6876,
      "▁তৎকালীন": 6877,
      "▁ইন্টারন্যাশনাল": 6878,
      "▁প্রতিশ্র": 6879,
      "▁অনুষ্ঠানের": 6880,
      "▁পানীয়": 6881,
      "▁কেহ": 6882,
      "▁আখ": 6883,
      "▁সংগৃহীত": 6884,
      "▁হাসপাতালে": 6885,
      "▁ডেভিড": 6886,
      "▁ধারার": 6887,
      "/১৫": 6888,
      "উর": 6889,
      "▁শলোম": 6890,
      "▁আল-": 6891,
      "▁শতাব্দী": 6892,
      "▁(আদিপুস্তক": 6893,
      "াড": 6894,
      "▁বলেছে": 6895,
      "▁মিশরের": 6896,
      "▁দিকের": 6897,
      "ষে": 6898,
      "▁দায়ী": 6899,
      "▁লুই": 6900,
      "াপূর্ণ": 6901,
      "▁সালে।": 6902,
      "▁ভাইদের": 6903,
      "▁স্টেট": 6904,
      "▁অভ্যন্তরীণ": 6905,
      "▁ভারসাম": 6906,
      "▁সা.কা.": 6907,
      "▁কূটন": 6908,
      "▁যন্ত্রণ": 6909,
      "ওয়ান": 6910,
      "িনিয়": 6911,
      "▁অংশের": 6912,
      "ভৌম": 6913,
      "৭৩": 6914,
      "▁প্রবাহ": 6915,
      "▁ম্যাচ": 6916,
      "▁সেনাবাহিনীর": 6917,
      "্যতা": 6918,
      "জ্জা": 6919,
      "▁[স্প্যানিশ": 6920,
      "▁পণ্ডিত": 6921,
      "▁বলেন।": 6922,
      "▁ঘটনায়": 6923,
      "▁শূন্য": 6924,
      "▁শতকে": 6925,
      "াখ": 6926,
      "▁দিয়েছিলেন,": 6927,
      "বাহিনীর": 6928,
      "▁ইয়োব": 6929,
      "▁সশ": 6930,
      "▁নওয়া": 6931,
      "দ্বিতীয়": 6932,
      "▁পরস্পর": 6933,
      "বংশ": 6934,
      "▁দেবে": 6935,
      "বিজ্ঞ": 6936,
      "▁জরুরি": 6937,
      "▁পৌরসভা": 6938,
      "াহিত": 6939,
      "▁ঝুঁকি": 6940,
      "▁গোষ্ঠী": 6941,
      "▁ইতিহাস.": 6942,
      "▁ছোটো": 6943,
      "পাশের": 6944,
      "▁চুক্তির": 6945,
      "▁\"ঈশ্বরের": 6946,
      "স্থাপন": 6947,
      "িত্রাণ": 6948,
      "▁পুঁ": 6949,
      "▁দশক": 6950,
      "▁ভেঙ্গে": 6951,
      "▁আর্মেন": 6952,
      "▁তারপরে": 6953,
      "▁\"শ": 6954,
      "▁দুর্দ": 6955,
      "পুর,": 6956,
      "▁উইলিয়াম": 6957,
      "▁দেখেন": 6958,
      "▁অবর": 6959,
      "▁পাট": 6960,
      "▁বিক্র": 6961,
      "▁পরেই": 6962,
      "িকেট": 6963,
      "জ্জিত": 6964,
      "জেন": 6965,
      "▁থাইল": 6966,
      "▁পারত": 6967,
      "▁হবেন।": 6968,
      "▁ক্রীড়া": 6969,
      "▁সেকেন্ড": 6970,
      "▁অথচ": 6971,
      "▁সেন্টার": 6972,
      "রাও": 6973,
      "বিশিষ্ট": 6974,
      "্ডিং": 6975,
      "▁অনেকটা": 6976,
      "▁মন্দিরের": 6977,
      "▁টুইটারে": 6978,
      "▁কর।": 6979,
      "▁পরিচর্যার": 6980,
      "▁সেখানকার": 6981,
      "▁কৌত": 6982,
      "▁মারাত্মক": 6983,
      "▁ছেলের": 6984,
      "▁অক্স": 6985,
      "▁পরিষে": 6986,
      "ূদের": 6987,
      "▁মী": 6988,
      "▁ধাত": 6989,
      "▁অলৌক": 6990,
      "্দ্রে": 6991,
      "▁পূর্ববর্তী": 6992,
      "▁পাঁচটি": 6993,
      "▁এদিকে": 6994,
      "▁সৌজন্য": 6995,
      "▁দত্ত": 6996,
      "ষ্ণু": 6997,
      "▁বাজারে": 6998,
      "৭৪": 6999,
      "▁বয়ে": 7000,
      "▁গ্যাল": 7001,
      "▁মাদক": 7002,
      "▁নিঃস": 7003,
      "▁পাত্র": 7004,
      "▁প্রারম্ভ": 7005,
      "▁আক্রমণের": 7006,
      "▁সেতু": 7007,
      "▁পরিচার": 7008,
      "▁প্রকৃতি": 7009,
      "▁ডেন": 7010,
      "▁দোকান": 7011,
      "নাম": 7012,
      "▁শরী": 7013,
      "▁ভাববাদী": 7014,
      "াইনের": 7015,
      "োনো": 7016,
      "▁হবে.": 7017,
      "▁বলেছিলেন।": 7018,
      "▁চালানো": 7019,
      "▁চোখের": 7020,
      "▁(পড়": 7021,
      "▁ঠাকুর": 7022,
      "জিও": 7023,
      "শয়": 7024,
      "▁কমন": 7025,
      "▁গণনা": 7026,
      "▁মৌসুম": 7027,
      "▁স্পষ্টভাবে": 7028,
      "▁সহিত": 7029,
      "▁৫৯.": 7030,
      "▁সৃষ্টির": 7031,
      "▁আরা": 7032,
      "▁তাৎ": 7033,
      "▁রোগের": 7034,
      "▁বিস্ময়": 7035,
      "▁লিমিটেড": 7036,
      "মালা": 7037,
      "ার্ড": 7038,
      "▁প্রতিবন্ধ": 7039,
      "▁ব্যাব": 7040,
      "ংকং": 7041,
      "ঃপর": 7042,
      "▁প্রাদেশিক": 7043,
      "▁উপাসনার": 7044,
      "▁ট্রান্স": 7045,
      "াচার": 7046,
      "▁\"দ": 7047,
      "▁১৯৯৭": 7048,
      "▁বিপ্লব": 7049,
      "পুরুষ": 7050,
      "▁\"ভ": 7051,
      "জাতীয়": 7052,
      "ব্যের": 7053,
      "▁ফি": 7054,
      "-সং": 7055,
      "্টে": 7056,
      "▁ডাকা": 7057,
      "▁কারাদ": 7058,
      "▁ইঞ্জিনিয়ার": 7059,
      "▁সংগ্রহের": 7060,
      "▁পাঞ্জাব": 7061,
      "ফর্ম": 7062,
      "▁স্বতন্ত্র": 7063,
      "াদন": 7064,
      "বাণী": 7065,
      "ির্জা": 7066,
      "▁সার্বভৌম": 7067,
      "▁মস্তিষ্": 7068,
      "▁অভিব্য": 7069,
      "চী": 7070,
      "শত": 7071,
      "▁যায়?": 7072,
      "▁স্মরণার্থ": 7073,
      "▁ইরান": 7074,
      "▁ডেম": 7075,
      "▁বার্ন": 7076,
      "▁গুজ": 7077,
      "ঘাট": 7078,
      "ণীর": 7079,
      "▁নাইট": 7080,
      "্রেট": 7081,
      "▁দমন": 7082,
      "্দা": 7083,
      "প্রায়": 7084,
      "▁বহি": 7085,
      "▁উল্লেখযোগ্য।": 7086,
      "▁পোর্ট": 7087,
      "▁ভালবাসা": 7088,
      "▁একমত": 7089,
      "▁দৈর্ঘ": 7090,
      "াকের": 7091,
      "নিয়": 7092,
      "▁আসছে": 7093,
      "িনাল": 7094,
      "▁পর্যায়ের": 7095,
      "▁রয়েছে?": 7096,
      "▁প্রস্তুতি": 7097,
      "▁আদালতে": 7098,
      "োকে": 7099,
      "▁অভিনয়ের": 7100,
      "▁পুরুষদের": 7101,
      "বর্ধ": 7102,
      "▁কলকাতায়": 7103,
      "▁সকালে": 7104,
      "▁তুর": 7105,
      "▁কার্যভার": 7106,
      "-তে": 7107,
      "▁খালি": 7108,
      "িয়ম": 7109,
      "▁ইত্যাদি।": 7110,
      "▁এম.": 7111,
      "পূর্বক": 7112,
      "▁বোর্ডের": 7113,
      "তাস": 7114,
      "▁এখনই": 7115,
      "▁যেমনটা": 7116,
      "▁জন্ম:": 7117,
      "▁ইউনিভার্সিটি": 7118,
      "ধীন": 7119,
      "▁অতঃপর": 7120,
      "▁অল্পবয়": 7121,
      "যোজন": 7122,
      "▁সফটওয়্যার": 7123,
      "িয়াতে": 7124,
      "▁পশ্চিমা": 7125,
      "▁বিক্রয়": 7126,
      "▁জেলে": 7127,
      "▁গভীরভাবে": 7128,
      "▁অষ্ট": 7129,
      "▁ফেলার": 7130,
      "▁লিখেছেন": 7131,
      "▁ভব": 7132,
      "▁ফাউন্ড": 7133,
      "াইতে": 7134,
      "▁৯.": 7135,
      "▁জাতিসংঘের": 7136,
      "গরি": 7137,
      "িস্টার": 7138,
      "▁ভাস্ক": 7139,
      "▁গাছের": 7140,
      "▁খ্রীষ্টানদের": 7141,
      "▁কিছুর": 7142,
      "ঝি": 7143,
      "াহ্ম": 7144,
      "▁রাগ": 7145,
      "▁মার্": 7146,
      "▁যিশুকে": 7147,
      "▁সূচনা": 7148,
      "৩;": 7149,
      "▁কির": 7150,
      "▁মুদ্রণ": 7151,
      "▁সঙ্ক": 7152,
      "▁আইএস": 7153,
      "লিন": 7154,
      "▁আউট": 7155,
      "তিকর": 7156,
      "▁মহা": 7157,
      "▁ভালভাবে": 7158,
      "▁দুইটি": 7159,
      "▁ফিলিস্ত": 7160,
      "▁কংগ্রেস": 7161,
      "২১": 7162,
      "▁ধনী": 7163,
      "▁অগ্রসর": 7164,
      "লা,": 7165,
      "▁কল্যাণ": 7166,
      "ুসারে": 7167,
      "নিজ": 7168,
      "▁শ্রোত": 7169,
      "▁এক্ষ": 7170,
      "জী": 7171,
      "▁মুল": 7172,
      "▁দেবে।": 7173,
      "গ্ধ": 7174,
      "▁কোল": 7175,
      "▁৩৮": 7176,
      "▁ভ্রাত": 7177,
      "▁থানা": 7178,
      "▁কর্মক": 7179,
      "োর্স": 7180,
      "▁অনুমোদিত": 7181,
      "মুক্ত": 7182,
      "▁অচ": 7183,
      "▁ঘুর": 7184,
      "▁করেনি।": 7185,
      "ইয়া": 7186,
      "▁ডোম": 7187,
      "▁কিছুদিন": 7188,
      "িপ্ট": 7189,
      "▁খ্রিষ্ট": 7190,
      "▁যেত": 7191,
      "▁দূত": 7192,
      "েইন": 7193,
      "▁(পড়ুন,": 7194,
      "▁তোল": 7195,
      "▁লেন": 7196,
      "▁সংবিধান": 7197,
      "▁করে।\"": 7198,
      "▁দুর্যোগ": 7199,
      "িল,": 7200,
      "েফ": 7201,
      "▁নিয়মিতভাবে": 7202,
      "ময়ে": 7203,
      "▁আনার": 7204,
      "▁অন্তর": 7205,
      "▁সম্প্রচার": 7206,
      "▁দুঃখিত": 7207,
      "▁ঔষ": 7208,
      "পন্থী": 7209,
      "▁তাছাড়া": 7210,
      "▁ডু": 7211,
      "োধী": 7212,
      "▁খন": 7213,
      "▁অসিদ্ধ": 7214,
      "▁চায়।": 7215,
      "▁দেবার": 7216,
      "▁জলবায়": 7217,
      "▁আছেন।": 7218,
      "▁জনসাধারণের": 7219,
      "▁সুপ্র": 7220,
      "▁প্রতিযোগিতার": 7221,
      "ঘু": 7222,
      "▁লর্ড": 7223,
      "▁কাঁচ": 7224,
      "▁পরিমাপ": 7225,
      "কাশিত": 7226,
      "▁পর্যায়": 7227,
      "ওয়াই": 7228,
      "▁চ্যালে": 7229,
      "▁হংকং": 7230,
      "▁জড়িয়ে": 7231,
      "▁জানানোর": 7232,
      "▁পুরস্কারের": 7233,
      "▁প্রত্যাশা": 7234,
      "▁বাচ্চাদের": 7235,
      "▁(এম": 7236,
      "▁রাতের": 7237,
      "-৬": 7238,
      "কন": 7239,
      "০;": 7240,
      "▁আর্জ": 7241,
      "▁থিষ": 7242,
      "াপ্তাহ": 7243,
      "োসিয়েশন": 7244,
      "▁আমরাও": 7245,
      "▁ক্লান্ত": 7246,
      "▁টান": 7247,
      "▁কারও": 7248,
      "▁করবেন,": 7249,
      "▁১৯৬০": 7250,
      "▁শাস্ত্রপদ": 7251,
      "▁অঙ্ক": 7252,
      "▁চিত্রিত": 7253,
      "▁ন্যায়বিচার": 7254,
      "ালার": 7255,
      "▁[পাদ": 7256,
      "▁[পাদটীকা": 7257,
      "▁কথায়": 7258,
      "▁বুল": 7259,
      "▁পাকিস্তানে": 7260,
      "▁শাস্ত্রীয়": 7261,
      "▁এশ": 7262,
      "▁পার্ব": 7263,
      "▁ব্যক্তিগতভাবে": 7264,
      "েগ": 7265,
      "▁জলা": 7266,
      "▁পুরষ্কার": 7267,
      "বীন্দ্র": 7268,
      "▁মিশরীয়": 7269,
      "▁অর্ধেক": 7270,
      "▁একদম": 7271,
      "▁অনুগত": 7272,
      "▁হৃদয়ে": 7273,
      "▁অনলাইনে": 7274,
      "▁৫:": 7275,
      "▁দায়ূদের": 7276,
      "▁মাত্রা": 7277,
      "মিক": 7278,
      "▁মদ": 7279,
      "▁গিয়েছিলেন।": 7280,
      "গামী": 7281,
      "৩৩": 7282,
      "▁দারি": 7283,
      "ুলের": 7284,
      "▁হতাশ": 7285,
      "▁সন্ন": 7286,
      "্টিভ": 7287,
      "▁হস্তক্ষেপ": 7288,
      "এক": 7289,
      "▁গির্জা": 7290,
      "▁আসে,": 7291,
      "▁গণতন্ত্র": 7292,
      "▁ক্রিকেটে": 7293,
      "মিন": 7294,
      "▁সাঁ": 7295,
      "$এস": 7296,
      "▁জবাব": 7297,
      "▁কলম্ব": 7298,
      "▁কাঠের": 7299,
      "শিল্প,": 7300,
      "াপক": 7301,
      "▁অফিসে": 7302,
      "২),": 7303,
      "▁উড়": 7304,
      "▁চর্": 7305,
      "্যাসের": 7306,
      "▁বিপুল": 7307,
      "াস,": 7308,
      "▁মি.": 7309,
      "▁বর্ণিত": 7310,
      "ছ?": 7311,
      "▁পিপ": 7312,
      "▁১৯৯৫": 7313,
      "▁শ্রী": 7314,
      "ঙ্গের": 7315,
      "িয়ের": 7316,
      "▁আমিও": 7317,
      "োক,": 7318,
      "ইয়": 7319,
      "১১": 7320,
      "▁আয়ের": 7321,
      "▁শব্দের": 7322,
      "▁যতক্ষণ": 7323,
      "▁দম্পতি": 7324,
      "শট": 7325,
      "▁চেন": 7326,
      "▁\"তুমি": 7327,
      "▁লন্ডন": 7328,
      "দৃশ্য": 7329,
      "▁তাহারা": 7330,
      "▁শ্রদ্ধা": 7331,
      "▁জমির": 7332,
      "▁ভিক": 7333,
      "▁কবর": 7334,
      "▁আজ্ঞা": 7335,
      "▁নির্ণ": 7336,
      "▁উপাধ": 7337,
      "▁সেটাকে": 7338,
      "বৃত্ত": 7339,
      "ঙ্কর": 7340,
      "মিড": 7341,
      "▁মূর্তি": 7342,
      "▁জনগোষ্ঠীর": 7343,
      "▁জেমস": 7344,
      "▁উপেক্ষা": 7345,
      "▁প্রতিটা": 7346,
      "▁স্বামীর": 7347,
      "▁১৯৫০": 7348,
      "▁অপারেশন": 7349,
      "াপুস্তক": 7350,
      "থের": 7351,
      "▁পরিত্রাণ": 7352,
      "▁সার্টিফ": 7353,
      "▁যোগ্যতা": 7354,
      "▁ভারসাম্য": 7355,
      "▁অবিশ্বাস": 7356,
      "▁দুর্": 7357,
      "▁আর্কাইভ": 7358,
      "ক্ষ্ম": 7359,
      "▁পাবে": 7360,
      "▁মেডিকেল": 7361,
      "ায়নিক": 7362,
      "▁জানান।": 7363,
      "সাদ": 7364,
      "দেশের": 7365,
      "▁ঢুক": 7366,
      "▁মাঝামা": 7367,
      "▁বয়সী।": 7368,
      "স্তি": 7369,
      "▁গরম": 7370,
      "▁প্রজন্ম": 7371,
      "▁\"তোমরা": 7372,
      "ব্লিউ": 7373,
      "সির": 7374,
      "▁উদ্যান": 7375,
      "▁লোড": 7376,
      "▁চ্যালেঞ্জ": 7377,
      "',": 7378,
      "▁কপ": 7379,
      "▁দ্বি": 7380,
      "দূর": 7381,
      "▁জের": 7382,
      "▁হয়েছিল?": 7383,
      "▁অপরাধের": 7384,
      "োনের": 7385,
      "▁ইন্ডিয়ান": 7386,
      "▁নৃত্য": 7387,
      "▁উষ্ণ": 7388,
      "▁ফাইন": 7389,
      "▁বোঝার": 7390,
      "▁সিলেট": 7391,
      "▁মৃত্তিকা": 7392,
      "৫৯": 7393,
      "▁ভালোভাবে": 7394,
      "▁ফিফা": 7395,
      "%)": 7396,
      "▁তিউ": 7397,
      "▁প্রথমবারের": 7398,
      "▁লুকিয়ে": 7399,
      "▁পরিণতি": 7400,
      "-বি": 7401,
      "▁নোট": 7402,
      "▁যাঁ": 7403,
      "▁১৮৬": 7404,
      "▁১২.": 7405,
      "▁ভবিষ্যতের": 7406,
      "খানি": 7407,
      "▁ক্ষতিকর": 7408,
      "▁বৃত্ত": 7409,
      "▁ক্যান": 7410,
      "▁খ্রিস্টানরা": 7411,
      "ঠা": 7412,
      "▁করেছিলাম।": 7413,
      "▁অপূর্ব": 7414,
      "▁করব।": 7415,
      "▁উপরের": 7416,
      "▁পর্যাপ্ত": 7417,
      "পর্ব": 7418,
      "▁কারণেই": 7419,
      "▁হয়েছে:": 7420,
      "▁ব্রাহ্ম": 7421,
      "▁তথ্যের": 7422,
      "▁এজেন্ট": 7423,
      "▁গেছে,": 7424,
      "▁সংশোধ": 7425,
      "বার,": 7426,
      "▁সম্পর্কযুক্ত": 7427,
      "▁মুক্তিযুদ্ধের": 7428,
      "▁পেশা": 7429,
      "৫৮": 7430,
      "▁বেতন": 7431,
      "▁\"সদাপ্রভ": 7432,
      "হু": 7433,
      "৭৭": 7434,
      "▁যথার্থ": 7435,
      "▁নির্যাতন": 7436,
      "▁বিরত": 7437,
      "ন্ডিত": 7438,
      "▁মশী": 7439,
      "▁দৃষ্টিতে": 7440,
      "▁মৃদ": 7441,
      "ক্ষেত্র": 7442,
      "▁বস্ত্র": 7443,
      "▁প্লিজ": 7444,
      "▁অধিবেশ": 7445,
      "▁কর্মকান্ড": 7446,
      "▁তেম": 7447,
      "▁রান্না": 7448,
      "ঞ্জন": 7449,
      "▁তোলে।": 7450,
      "াপ্তাহিক": 7451,
      "জো": 7452,
      "টিয়া": 7453,
      "▁ট্রেড": 7454,
      "▁কারখানা": 7455,
      "নামূলক": 7456,
      "▁বাবা-ম": 7457,
      "▁বুদ্ধিমান": 7458,
      "▁মিত্র": 7459,
      "▁বন্যা": 7460,
      "কেত": 7461,
      "▁মানুষদের": 7462,
      "▁প্রবল": 7463,
      "▁কাজগুলো": 7464,
      "▁১৩:১": 7465,
      "▁বিজ্ঞাপন": 7466,
      "গরে": 7467,
      "ছো": 7468,
      "ভের": 7469,
      "হাট": 7470,
      "▁শোক": 7471,
      "▁আশে": 7472,
      "▁শিল্পের": 7473,
      "▁পড়াশোনা": 7474,
      "▁মুসলমানদের": 7475,
      "▁দারিদ্র": 7476,
      "য্য": 7477,
      "▁করিও": 7478,
      "▁দুধ": 7479,
      "▁কোষ": 7480,
      "▁জেগে": 7481,
      "▁ফাঁকা": 7482,
      "▁অক্ষর": 7483,
      "▁অবলম্ব": 7484,
      "্রিম": 7485,
      "▁পদ্ধতির": 7486,
      "▁সমাবেশ": 7487,
      "জ,": 7488,
      "৫),": 7489,
      "▁কাত": 7490,
      "▁রবীন্দ্র": 7491,
      "েলায়": 7492,
      "▁প্রযোজ্য": 7493,
      "৪৮": 7494,
      "▁মেন": 7495,
      "▁সদস্যের": 7496,
      "ভাষা": 7497,
      "▁রবি": 7498,
      "▁আদালতের": 7499,
      "গি": 7500,
      "▁জন্যও": 7501,
      "৩৯": 7502,
      "▁মাটির": 7503,
      "▁আদিবাসী": 7504,
      "▁সিংহ": 7505,
      "িবি": 7506,
      "▁পাগল": 7507,
      "▁ক্লাস": 7508,
      "াপি": 7509,
      "▁অনেকের": 7510,
      "▁অসন্ত": 7511,
      "ান্ডা": 7512,
      "▁বক্স": 7513,
      "▁মজা": 7514,
      "র্পণ": 7515,
      "নিয়া": 7516,
      "▁ঘাট": 7517,
      "▁অন্ধকার": 7518,
      "লিখিত": 7519,
      "▁চান,": 7520,
      "▁(যে": 7521,
      "▁ফোল্ড": 7522,
      "▁ভুট": 7523,
      "▁ধাপ": 7524,
      "▁মাটি": 7525,
      "▁রূপান্তর": 7526,
      "▁রাস্তার": 7527,
      "▁নিষেধাজ্ঞা": 7528,
      "▁চলাচ": 7529,
      "▁..": 7530,
      "▁ওপরে": 7531,
      "দায়ক": 7532,
      "িনীতে": 7533,
      "▁মধ্যে,": 7534,
      "▁আফগানিস্তানের": 7535,
      "জিদের": 7536,
      "▁গণিত": 7537,
      "ধর্মী": 7538,
      "▁আর্জেন্ট": 7539,
      "▁কায়": 7540,
      "দ্রব্য": 7541,
      "▁অনুপ্র": 7542,
      "▁প্রশংস": 7543,
      "▁পরিবারকে": 7544,
      "▁গৌরব": 7545,
      "▁ক্যাপ্টেন": 7546,
      "▁সংসদের": 7547,
      "▁অস্ট্রেলিয়ার": 7548,
      "▁সদাপ্রভুর": 7549,
      "▁স্র": 7550,
      "ন্দন": 7551,
      "▁গুরুত্বপূর্ণ।": 7552,
      "▁বিনা": 7553,
      "ামূল": 7554,
      "▁সর্বোত্তম": 7555,
      "ত্রের": 7556,
      "▁\"আপ": 7557,
      "▁সদস্যরা": 7558,
      "▁আটকে": 7559,
      "▁ড.": 7560,
      "▁আলি": 7561,
      "▁আমেরিকা/": 7562,
      "▁কর্পোরেশন": 7563,
      "লেও": 7564,
      "▁-এ": 7565,
      "▁জানান": 7566,
      "▁উপজেলা,": 7567,
      "▁বিপর্য": 7568,
      "ফুল": 7569,
      "গ্রামের": 7570,
      "▁মেয়ের": 7571,
      "▁চ্যাম্পিয়নশিপ": 7572,
      "সাগর": 7573,
      "িস্তান": 7574,
      "▁শরণার্থ": 7575,
      "খর": 7576,
      "▁উপত্য": 7577,
      "▁অসহ": 7578,
      "▁তাপমাত্র": 7579,
      "তাল": 7580,
      "▁পেত": 7581,
      "▁১১.": 7582,
      "ভিন": 7583,
      "রিন": 7584,
      "▁খিল": 7585,
      "▁ইউরোপের": 7586,
      "▁অনৈতিক": 7587,
      "▁এমনভাবে": 7588,
      "▁সঙ্গী": 7589,
      "▁সৈনিক": 7590,
      "▁নিষ্প": 7591,
      "▁প্রতিদ্বন্দ্বিতা": 7592,
      "সিল": 7593,
      "▁প্রিমি": 7594,
      "▁ক্ষেত্রে,": 7595,
      "▁হাসান": 7596,
      "▁তীম.": 7597,
      "▁অনুশীলন": 7598,
      "পুরে": 7599,
      "▁সোনা": 7600,
      "▁প্রজ্ঞা": 7601,
      "▁প্রবাহিত": 7602,
      "য়াবহ": 7603,
      "মানিক": 7604,
      "ানায়": 7605,
      "▁প্রোট": 7606,
      "▁করেননি।": 7607,
      "▁চিরকাল": 7608,
      "▁করো।": 7609,
      "▁পাঠ্য": 7610,
      "▁বিকাশ": 7611,
      "▁কমিউনি": 7612,
      "৯;": 7613,
      "▁ডাটা": 7614,
      "▁ইন্স": 7615,
      "▁বিশ্রাম": 7616,
      "েন্সি": 7617,
      "▁বন্দুক": 7618,
      "▁কর্মীদের": 7619,
      "▁দলিল": 7620,
      "▁সিরিয়ার": 7621,
      "বৃত্তি": 7622,
      "▁আশ্চর্য": 7623,
      "▁টার": 7624,
      "▁রাজি": 7625,
      "কর্তা": 7626,
      "▁প্রতিরক্ষা": 7627,
      "▁নান": 7628,
      "▁বিবাহিত": 7629,
      "▁৩০০": 7630,
      "▁নৌকা": 7631,
      "▁ভিয়ে": 7632,
      "▁কমিশনার": 7633,
      "▁আব্দুল": 7634,
      "▁সিঙ্গাপুর": 7635,
      "▁করতো": 7636,
      "▁বাহরাই": 7637,
      "▁নিজেদেরকে": 7638,
      "ির্দিষ্ট": 7639,
      "কুমার": 7640,
      "▁প্রবণতা": 7641,
      "▁সোম": 7642,
      "স্ক্র": 7643,
      "▁ঔষধ": 7644,
      "েরও": 7645,
      "▁বিশ্বযুদ্ধের": 7646,
      "▁গিয়েছে": 7647,
      "াহীন": 7648,
      "▁আরবি": 7649,
      "▁উপকৃত": 7650,
      "▁পতাকা": 7651,
      "-উ": 7652,
      "টিশ": 7653,
      "▁ওল": 7654,
      "▁রুট": 7655,
      "বছর": 7656,
      "▁ইতোমধ্যে": 7657,
      "-৮": 7658,
      "ডেন": 7659,
      "▁কুই": 7660,
      "▁হাব": 7661,
      "▁আছি": 7662,
      "▁অপরের": 7663,
      "▁গিয়েছে।": 7664,
      "▁১৪.": 7665,
      "▁সেনা": 7666,
      "ব্ব": 7667,
      "▁অয": 7668,
      "▁একইভাবে,": 7669,
      "▁দূতাব": 7670,
      "▁মাস্টার": 7671,
      "▁অনুপস্থিত": 7672,
      "▁তেমনি": 7673,
      "টক": 7674,
      "▁দো": 7675,
      "▁কার্ট": 7676,
      "▁মোশির": 7677,
      "▁খ্যাতি": 7678,
      "তাত্ত্বিক": 7679,
      "থির": 7680,
      "▁অবা": 7681,
      "▁৪:২": 7682,
      "▁এতটাই": 7683,
      "▁তী": 7684,
      "▁হইবে": 7685,
      "▁চলচ্চিত্রটি": 7686,
      "▁ভয়াবহ": 7687,
      "▁সেটাই": 7688,
      "▁সহকর্ম": 7689,
      "▁১০:২": 7690,
      "▁শতকরা": 7691,
      "▁একত্রে": 7692,
      "▁আবদ্ধ": 7693,
      "▁জন্": 7694,
      "▁এমনটা": 7695,
      "▁উদযাপন": 7696,
      "▁চাই,": 7697,
      "▁বানিয়ে": 7698,
      "▁প্রেক্ষ": 7699,
      "▁রাশিয়া": 7700,
      "▁বিশুদ্ধ": 7701,
      "▁ক্রিস": 7702,
      "২৭": 7703,
      "▁মাইকেল": 7704,
      "াদুর": 7705,
      "▁সংক্ষেপ": 7706,
      "▁বলছি": 7707,
      "▁৪৯": 7708,
      "▁বিচারের": 7709,
      "৫৬": 7710,
      "▁প্রকাশক": 7711,
      "▁ব্রহ্ম": 7712,
      "▁ভালোবাসা": 7713,
      "্টের": 7714,
      "▁মেলামেশা": 7715,
      "▁সাপ্তাহিক": 7716,
      "▁(বি": 7717,
      "▁বেঙ্গল": 7718,
      "ঁটে": 7719,
      "▁ক্রে": 7720,
      "▁অংশী": 7721,
      "▁সন্তুষ্ট": 7722,
      "উদ্দিন": 7723,
      "▁সংস্থ": 7724,
      "▁ডাই": 7725,
      "▁ভাঙ": 7726,
      "ল্যান্ডের": 7727,
      "▁নিউজিল": 7728,
      "▁বিশ্বে": 7729,
      "▁হচ্ছেন": 7730,
      "৩৮": 7731,
      "▁প্রতিবেদ": 7732,
      "▁পাকিস্তানি": 7733,
      "▁হাতের": 7734,
      "▁অজানা": 7735,
      "েদ": 7736,
      "িসে": 7737,
      "▁স্প্যানিশ": 7738,
      "▁লেবান": 7739,
      "▁কৃষক": 7740,
      "▁হালকা": 7741,
      "▁ঘূর্ণ": 7742,
      "▁কোচ": 7743,
      "▁সঠিকভাবে": 7744,
      "▁রাসায়নিক": 7745,
      "▁বিবৃতি": 7746,
      "▁খণ্ড": 7747,
      "▁প্রো": 7748,
      "টায়": 7749,
      "সেই": 7750,
      "জিম": 7751,
      "ঞ্চল": 7752,
      "▁অধিকারী": 7753,
      "▁কোর্স": 7754,
      "গড়": 7755,
      "▁সেগুলোকে": 7756,
      "কায়": 7757,
      "নগর": 7758,
      "▁টেলি": 7759,
      "বীয়": 7760,
      "▁আমদানি": 7761,
      "▁বৈষম": 7762,
      "▁ভাইয়ের": 7763,
      "▁(চ": 7764,
      ":৩)": 7765,
      "পাত্র": 7766,
      "▁(আই": 7767,
      "ম্বুজ": 7768,
      "▁হোটেল": 7769,
      "ছা": 7770,
      "▁প্রিন্স": 7771,
      "▁নিয়েছিলেন।": 7772,
      "▁৩:২": 7773,
      "▁বৃক্ষ": 7774,
      "-ও": 7775,
      "▁সরকারকে": 7776,
      "▁ব্যবস্থায়": 7777,
      "▁আনুষ্ঠানিক": 7778,
      "▁অনুলিপি": 7779,
      "▁সম্বন্ধীয়": 7780,
      "▁টাকার": 7781,
      "▁৪,": 7782,
      "▁পয়েন্ট": 7783,
      "▁টেনে": 7784,
      "শাস্ত্র": 7785,
      "ছ,": 7786,
      "▁(৪)": 7787,
      "▁আত্মিক": 7788,
      "▁(গ)": 7789,
      "▁প্রচারণা": 7790,
      "লভ": 7791,
      "▁কল্প": 7792,
      "ষ্ঠিত": 7793,
      "্সি": 7794,
      "▁বিষয়।": 7795,
      "▁দানিয়েল": 7796,
      "▁হোক,": 7797,
      "▁উচিত,": 7798,
      "▁নেতাদের": 7799,
      "▁নির্বাচনী": 7800,
      "▁লিখতে": 7801,
      "না।": 7802,
      "পর্য": 7803,
      "▁গঠনের": 7804,
      "▁রাজকীয়": 7805,
      "▁উত্তে": 7806,
      "▁৬৫": 7807,
      "▁সম্প্রসারণ": 7808,
      "▁কারাগারে": 7809,
      "▁এখানকার": 7810,
      "▁(যিশাইয়": 7811,
      "যে": 7812,
      "▁নৈ": 7813,
      "বাগ": 7814,
      "▁তাঁহ": 7815,
      "▁থাকায়": 7816,
      "▁দিলে": 7817,
      "▁ক্রয়": 7818,
      "গতি": 7819,
      "কে,": 7820,
      "▁এইভাবে": 7821,
      "▁স্বচ্ছ": 7822,
      "▁মেয়াদ": 7823,
      "েন্ডার": 7824,
      "▁নাচ": 7825,
      "▁বরাবর": 7826,
      "হান": 7827,
      "▁কিনে": 7828,
      "▁এশিয়ান": 7829,
      "▁মতবাদ": 7830,
      "▁মিনিটের": 7831,
      "▁খোল": 7832,
      "প্রাচ": 7833,
      "▁এনজিও": 7834,
      "▁কথাবার্তা": 7835,
      "▁একদল": 7836,
      "না.": 7837,
      "▁বাবা-মা": 7838,
      "স্তা": 7839,
      "▁১৩.": 7840,
      "▁হতো,": 7841,
      "▁পরিবহন": 7842,
      "▁এতো": 7843,
      "▁শাক": 7844,
      "▁২৪:১": 7845,
      "পান": 7846,
      "▁কাস": 7847,
      "াসহ": 7848,
      "▁স্বেচ্ছাসে": 7849,
      "্লিক": 7850,
      "▁১৯৯২": 7851,
      "▁কেন্দ্রের": 7852,
      "বিধা": 7853,
      "▁শতক": 7854,
      "▁গবেষণার": 7855,
      "▁ব্যাংকের": 7856,
      "৪৯": 7857,
      "▁কেন্দ্রীভূত": 7858,
      "▁অতিথি": 7859,
      "▁ভৌগোল": 7860,
      "▁প্রতিফলিত": 7861,
      "▁করবার": 7862,
      "▁জঙ্গ": 7863,
      "তা।": 7864,
      "▁চাঁদ": 7865,
      "াদশ": 7866,
      "তিবাচক": 7867,
      "▁এসেছিল": 7868,
      "▁ফেরত": 7869,
      "▁কর্মচারী": 7870,
      "▁যোষ": 7871,
      "▁ট্রাই": 7872,
      "▁সহযোগী": 7873,
      "সামরিক": 7874,
      "▁মাতৃ": 7875,
      "▁মেট": 7876,
      "▁পড়ুন,": 7877,
      "▁(প্রতি": 7878,
      "▁যথাক্রমে": 7879,
      "▁ইংল্যান্ডের": 7880,
      "▁গবাদ": 7881,
      "ৃৎ": 7882,
      "▁প্রবর্ত": 7883,
      "িন্ট": 7884,
      "য়েন্টি": 7885,
      "র্প": 7886,
      "াহার": 7887,
      "ুখী": 7888,
      "▁মৃদু": 7889,
      "▁এ.": 7890,
      "▁সমূহ": 7891,
      "▁বিনিময়": 7892,
      "▁ভিয়েতন": 7893,
      "▁অডিও": 7894,
      "িক্ষেপ": 7895,
      "▁জুগ": 7896,
      "▁লাগিয়ে": 7897,
      "▁সম্পূর্ণরূপে": 7898,
      "▁পুরাতন": 7899,
      "▁মৎস্য": 7900,
      "বর্ষ": 7901,
      "▁থেকেও": 7902,
      "▁সম্মিল": 7903,
      "ুগত্য": 7904,
      "▁সশস্ত্র": 7905,
      "৩৬": 7906,
      "▁(ন": 7907,
      "▁৫৫": 7908,
      "▁বিলিয়ন": 7909,
      "▁দুর্নীতি": 7910,
      "▁খাবারের": 7911,
      "▁পতিত": 7912,
      "▁সাধন": 7913,
      "▁ক্ষমতায়": 7914,
      "▁প্রতিশ্রুতি": 7915,
      "▁আকারের": 7916,
      "▁সাউ": 7917,
      "▁নিরপেক্ষ": 7918,
      "▁প্রণীত": 7919,
      "▁পশ্চিমবঙ্গের": 7920,
      "▁পরিষেবা": 7921,
      "ক্ষক": 7922,
      "▁উপনিবেশ": 7923,
      "ফল্ট": 7924,
      "▁সেন্স": 7925,
      "▁নীত": 7926,
      "▁বিচারক": 7927,
      "▁ফ্রা": 7928,
      "▁১৬.": 7929,
      "▁১৯৮২": 7930,
      "▁নিখুঁ": 7931,
      "▁যিহূদী": 7932,
      "▁সোনার": 7933,
      "▁তিনিই": 7934,
      "▁যে-স": 7935,
      "▁১৯৭৭": 7936,
      "▁ম্যাগাজ": 7937,
      "মুদ": 7938,
      "বিহীন": 7939,
      "▁ডার": 7940,
      "▁কে?": 7941,
      "সংহার": 7942,
      "▁নিম্নলিখিত": 7943,
      "▁অগ্রগামীর": 7944,
      "▁আল্লাহর": 7945,
      "েন?": 7946,
      "ক্তির": 7947,
      "▁বায়ু": 7948,
      "▁গ্রহণযোগ্য": 7949,
      "▁ত্রিপ": 7950,
      "িহো": 7951,
      "▁কেন্দ্রে": 7952,
      "দেহ": 7953,
      "▁সুরক্ষিত": 7954,
      "শিং": 7955,
      "▁খো": 7956,
      "সেফ": 7957,
      "▁বন্দী": 7958,
      "▁ডিরেক্ট": 7959,
      "ৃষ্ঠ": 7960,
      "▁সমিতি": 7961,
      "শো": 7962,
      "▁বলেছেন,": 7963,
      "▁বক্তৃত": 7964,
      "▁পাখি": 7965,
      "▁স্বয়ংক্রিয়": 7966,
      "▁কুর": 7967,
      "▁সদস্য।": 7968,
      "▁প্রত্যাহার": 7969,
      "▁পরিবহণ": 7970,
      "্বক": 7971,
      "▁বিছ": 7972,
      "▁ব্রাউ": 7973,
      "▁রম": 7974,
      "▁পরিপ": 7975,
      "▁১৯৯৩": 7976,
      "▁রূপান্তরিত": 7977,
      "বারেই": 7978,
      "দেশিক": 7979,
      "▁রূপক": 7980,
      "পোর্ট": 7981,
      "ৃষ্ণ": 7982,
      "ওয়াজ": 7983,
      "▁মতোই": 7984,
      "▁মসজিদের": 7985,
      "রান": 7986,
      "▁দ্বার": 7987,
      "▁প্রশান্ত": 7988,
      "▁অস্থায়ী": 7989,
      "▁অনুত": 7990,
      "▁হিসেবে,": 7991,
      "▁আবির্": 7992,
      "েলে": 7993,
      "▁সত্যিকারের": 7994,
      "▁জানতেন": 7995,
      "▁আনুগত্য": 7996,
      "ভ্র": 7997,
      "▁১৫.": 7998,
      "▁যন্ত্রপা": 7999,
      "▁ছেলেমেয়েদের": 8000,
      "ীনের": 8001,
      "৭২": 8002,
      "▁কর্মকাণ্ড": 8003,
      "▁শিরোনামের": 8004,
      "য়েড": 8005,
      "▁ট্রা": 8006,
      "▁সিংহাস": 8007,
      "▁\"আমাদের": 8008,
      "▁অ্যাক": 8009,
      "েশনে": 8010,
      "▁ইস্রায়েলীয়দের": 8011,
      "িন্দি": 8012,
      "টিস": 8013,
      "▁৫৯.৫%,": 8014,
      "াদির": 8015,
      "াব্লিউ": 8016,
      "▁রাজ্যে": 8017,
      "▁মঙ্গ": 8018,
      "▁মানের": 8019,
      "▁পুরুষের": 8020,
      "-২০০": 8021,
      "সীয়": 8022,
      "▁কর্মরত": 8023,
      "াতেই": 8024,
      "▁সের": 8025,
      "▁হিজ": 8026,
      "ার্থে": 8027,
      "▁দলটি": 8028,
      "▁অলৌকিক": 8029,
      "▁খন্ড": 8030,
      "ুব্ধ": 8031,
      "▁গ্রন্থা": 8032,
      "খণ্ড": 8033,
      "▁বিষয়গুলোর": 8034,
      "▁বিভ্রান্ত": 8035,
      "▁ঝাঁ": 8036,
      "▁নিপ": 8037,
      "▁বৈচিত্র": 8038,
      "▁উন্নীত": 8039,
      "▁১১:১": 8040,
      "যান": 8041,
      "▁ওজন": 8042,
      "▁না...": 8043,
      "▁গ্রীক": 8044,
      "▁রাজবংশ": 8045,
      "▁স্থানান্তর": 8046,
      "▁ওয়েবসাই": 8047,
      "▁মধ্যবর্তী": 8048,
      "▁অধিন": 8049,
      "▁'ত": 8050,
      "▁পৃষ্ঠায়": 8051,
      "▁পার্বত্য": 8052,
      "▁লাগানো": 8053,
      "ওয়েল": 8054,
      "ীয়া": 8055,
      "▁১৯৯৪": 8056,
      "▁লিখেছেন:": 8057,
      "▁মিশনারি": 8058,
      "''": 8059,
      "৪৫": 8060,
      "▁নির্দ": 8061,
      "▁করত,": 8062,
      "▁টেলিভিশ": 8063,
      "▁রাজশাহী": 8064,
      "▁সিপি": 8065,
      "▁অপমান": 8066,
      "▁বৈদেশিক": 8067,
      "▁তিনজন": 8068,
      "▁পুনরুদ্ধ": 8069,
      "▁অভিব্যক্তি": 8070,
      "▁প্রার্থনার": 8071,
      "▁কার্যক্রমের": 8072,
      "ম্মদ": 8073,
      "৭),": 8074,
      "▁ফলে,": 8075,
      "▁আইসিসি": 8076,
      "▁চাচ্": 8077,
      "▁নিবন্ধন": 8078,
      "▁(গীত.": 8079,
      "▁গির্জার": 8080,
      "বক": 8081,
      "▁নন": 8082,
      "পরিচিত": 8083,
      "▁তির": 8084,
      "▁উস": 8085,
      "▁অনূ": 8086,
      "্নার": 8087,
      "▁২০০১,": 8088,
      "▁শ্রোতাদের": 8089,
      "▁নোহ": 8090,
      "▁প্রক্রিয়": 8091,
      "▁সেবার": 8092,
      "▁ধান": 8093,
      "▁উইক": 8094,
      "▁এছাড়াও,": 8095,
      "▁খেয়াল": 8096,
      "৯০": 8097,
      "লস": 8098,
      "▁নেতিবাচক": 8099,
      "▁মিশন": 8100,
      "▁ডিগ্রী": 8101,
      "।'": 8102,
      "ধ্ব": 8103,
      "▁সেগুলি": 8104,
      "▁পরীক্ষায়": 8105,
      "▁অসম্ভব": 8106,
      "ভাল": 8107,
      "ভায়": 8108,
      "▁ছি": 8109,
      "▁১৯৭৫": 8110,
      "▁বৎস": 8111,
      "▁উপদে": 8112,
      "▁দাসদের": 8113,
      "▁জলের": 8114,
      "াস্তা": 8115,
      "াতন": 8116,
      "▁ব্যথা": 8117,
      "▁ট্রে": 8118,
      "▁কর্মকর্তাদের": 8119,
      "▁বিদেশে": 8120,
      "সম্পদ": 8121,
      "▁মুম্ব": 8122,
      "িংক": 8123,
      "▁যাইহ": 8124,
      "▁পার্থিব": 8125,
      "্মিক": 8126,
      "খ্যায়": 8127,
      "▁হাইক": 8128,
      "▁উপসংহার": 8129,
      "▁আধ্যাত্মিকভাবে": 8130,
      "▁ভৌগোলিক": 8131,
      "শক": 8132,
      "▁খাত": 8133,
      "ঞ্জস্য": 8134,
      "ণা": 8135,
      "োত্তর": 8136,
      "▁ব্লগের": 8137,
      "লো।": 8138,
      "াম্প": 8139,
      "▁৫১": 8140,
      "▁স্পেন": 8141,
      "▁ফেলে।": 8142,
      "▁হামলার": 8143,
      "▁প্রদর্শনের": 8144,
      "▁এগুলোর": 8145,
      "▁একসময়": 8146,
      "▁৫,": 8147,
      "▁মেজর": 8148,
      "▁উদ্ধৃতি": 8149,
      "▁পঞ্চম": 8150,
      "▁টেক্সট": 8151,
      "৩৫": 8152,
      "▁নিয়েছে।": 8153,
      "▁মহারা": 8154,
      "▁সাক্ষী": 8155,
      "▁গণতান্ত্রিক": 8156,
      "ভেল": 8157,
      "স।": 8158,
      "▁ডিফল্ট": 8159,
      "▁উনিশ": 8160,
      "▁জোট": 8161,
      "▁কেউই": 8162,
      "▁কমিউন": 8163,
      "ওল": 8164,
      "▁ডেকে": 8165,
      "▁সামনের": 8166,
      "▁প্রতারণ": 8167,
      "▁কনফি": 8168,
      "▁যিরমিয়": 8169,
      "▁ইফিষীয়": 8170,
      "▁পারেনি।": 8171,
      "▁বৃহত্তর": 8172,
      "▁চিত্ত": 8173,
      "▁শান্তিপূর্ণ": 8174,
      "▁বিনিময়ে": 8175,
      "▁পণ": 8176,
      "▁সমষ্টি": 8177,
      "▁ডাউন": 8178,
      "▁৫০০": 8179,
      "▁ভূমিকায়": 8180,
      "▁স্বীকৃত": 8181,
      "▁\"ঈশ্বর": 8182,
      "▁আফ্রিকান": 8183,
      "ত্ত্র": 8184,
      "▁সাহসী": 8185,
      "▁পূর্বের": 8186,
      "▁দলকে": 8187,
      "▁ভাবতে": 8188,
      "▁ভাগ্য": 8189,
      "▁কোম্পানী": 8190,
      "পোষ": 8191,
      "▁ওঠার": 8192,
      "ৃঙ্খলা": 8193,
      "▁নাব": 8194,
      "▁দেরি": 8195,
      "▁বলুন": 8196,
      "ভারত": 8197,
      "▁শোনার": 8198,
      "▁প্রসারিত": 8199,
      "দ্ম": 8200,
      "▁ঘিরে": 8201,
      "াদেশের": 8202,
      "▁উপস্থাপনা": 8203,
      "▁কলেজ,": 8204,
      "▁পাথরের": 8205,
      "▁বেসামরিক": 8206,
      "▁মাঝামাঝি": 8207,
      "৬),": 8208,
      "▁দুন": 8209,
      "▁একজনের": 8210,
      "▁রাখেন।": 8211,
      "▁হাস্য": 8212,
      "▁শান্তির": 8213,
      "বৃদ্ধ": 8214,
      "▁সনাক্ত": 8215,
      "নিম": 8216,
      "▁এসেছিল।": 8217,
      "▁মৃত্যুবরণ": 8218,
      "▁নীতির": 8219,
      "▁অ্যালবাম": 8220,
      "েয়": 8221,
      "িনো": 8222,
      "োপক": 8223,
      "▁গঠিত।": 8224,
      "▁রিপোর্": 8225,
      "▁নিখুঁত": 8226,
      "৩),": 8227,
      "িলার": 8228,
      "▁পারছি": 8229,
      "▁পুরোনো": 8230,
      "▁ক্ষু": 8231,
      "ঞ্জাম": 8232,
      "▁হল।": 8233,
      "োহিত": 8234,
      "▁ভাই-ব": 8235,
      "▁একেবারেই": 8236,
      "▁উত্স": 8237,
      "কষ্ট": 8238,
      "▁বি.": 8239,
      "▁অবশিষ্ট": 8240,
      "▁সকলেই": 8241,
      "▁করাকে": 8242,
      "▁টার্ম": 8243,
      "▁তারাও": 8244,
      "চয়": 8245,
      "বুদ্ধ": 8246,
      "▁সমুদ": 8247,
      "▁ইলেকট্র": 8248,
      "ষ্ক": 8249,
      "▁৫২": 8250,
      "▁ঐতিহ্যবাহী": 8251,
      "গিত": 8252,
      "নন্দ": 8253,
      "▁যেটার": 8254,
      "▁গেল।": 8255,
      "▁ঘণ্টা": 8256,
      "ঁড়": 8257,
      "মূর্ত": 8258,
      "▁জী": 8259,
      "▁কাজটি": 8260,
      "▁জনতা": 8261,
      "▁উত্প": 8262,
      "শাসন": 8263,
      "ূতন": 8264,
      "▁বিগত": 8265,
      "▁\"ল": 8266,
      "জীবনের": 8267,
      "▁দুর্ব": 8268,
      "▁বিদেশি": 8269,
      "▁আবহাওয়া": 8270,
      "ুরের": 8271,
      "▁কাশ্ম": 8272,
      "▁\"বি": 8273,
      "▁ক্রোধ": 8274,
      "এসসি": 8275,
      "▁নামেও": 8276,
      "▁দোষী": 8277,
      "▁অংশীদার": 8278,
      "গতিক": 8279,
      "ৃশ্য": 8280,
      "▁খাওয়ার": 8281,
      "▁গোপনীয়": 8282,
      "র্মা": 8283,
      "িহার": 8284,
      "▁প্রচারিত": 8285,
      "▁লঙ্ঘন": 8286,
      "▁(৪": 8287,
      "▁মধ্যযুগ": 8288,
      "▁বেই": 8289,
      "▁অনুসন্ধ": 8290,
      "▁ভেতর": 8291,
      "▁যাজক": 8292,
      "▁নিঃসন্দেহ": 8293,
      "▁\"গ": 8294,
      "▁সংগ্রাম": 8295,
      "▁আইন,": 8296,
      "▁জয়লাভ": 8297,
      "ঞ্জে": 8298,
      "▁প্রিমিয়ার": 8299,
      "সুল": 8300,
      "▁মির": 8301,
      "▁বিজ": 8302,
      "-ফ": 8303,
      "শব": 8304,
      "▁মালিকান": 8305,
      "▁দাঁড়া": 8306,
      "শাহ": 8307,
      "▁অগ্নি": 8308,
      "▁সার্টিফিকেট": 8309,
      ":৫": 8310,
      "▁পাইল": 8311,
      "▁তুলনামূলক": 8312,
      "▁সম্মেলনের": 8313,
      "▁মহাসাগর": 8314,
      "ন্তু,": 8315,
      "▁কাজকে": 8316,
      "▁উদ্যাপ": 8317,
      "▁মাধ্যমে।": 8318,
      "▁প্রত্যেকে": 8319,
      "▁বন্ধুদের": 8320,
      "▁রূপে": 8321,
      "▁সমন্বয়ে": 8322,
      "▁কাজ।": 8323,
      "▁১৯৮৩": 8324,
      "▁পল্ল": 8325,
      "-ত": 8326,
      "৯৯": 8327,
      "▁গায়ক": 8328,
      "▁টন": 8329,
      "▁ইহুদি": 8330,
      "▁ট্র্যাক্ট": 8331,
      "▁গান্ধ": 8332,
      "▁জানাচ্": 8333,
      "বহুল": 8334,
      "▁জিয়া": 8335,
      "▁১৯৬২": 8336,
      "দাতা": 8337,
      ":১,": 8338,
      "ভাগ্য": 8339,
      "▁জোরে": 8340,
      "তনের": 8341,
      "ছে।\"": 8342,
      "গাঁও": 8343,
      "▁অক্ষম": 8344,
      "াম্ব": 8345,
      "▁চিল": 8346,
      "▁চিন্তার": 8347,
      "▁নিষ্ঠুর": 8348,
      "▁কমিউনিস্ট": 8349,
      "েক্ষে": 8350,
      "▁করতাম": 8351,
      "▁১৯৮৯": 8352,
      "বাল": 8353,
      "▁দ্বন্দ্ব": 8354,
      "▁মিলিয়ে": 8355,
      "▁তর্ক": 8356,
      "▁সংখ্যার": 8357,
      "▁অপারে": 8358,
      "বেন,": 8359,
      "সাল": 8360,
      "▁শপথ": 8361,
      "িসা": 8362,
      "িয়র": 8363,
      "▁১৯৮৪": 8364,
      "▁\"উ": 8365,
      "▁থাক!": 8366,
      "রায়ণ": 8367,
      "▁রিচার": 8368,
      "৩১": 8369,
      "▁\"চ": 8370,
      "▁১৭.": 8371,
      "▁প্রাচীনদের": 8372,
      "▁প্রাপ্তবয়স্ক": 8373,
      "▁শরীরের": 8374,
      "▁কর্মসূচির": 8375,
      "▁তীরে": 8376,
      "ঠি": 8377,
      "দাস": 8378,
      "▁সেবায়": 8379,
      "▁স্থানান্তরিত": 8380,
      "ষ্ঠানিকভাবে": 8381,
      "▁বিপ্লবের": 8382,
      "▁জার্ন": 8383,
      "▁জলবায়ু": 8384,
      "▁জিও": 8385,
      "▁আকর্ষণীয়": 8386,
      "গর্ভ": 8387,
      "▁আশ্বাস": 8388,
      "িতে,": 8389,
      "▁হাও": 8390,
      "▁সাগর": 8391,
      "▁সর্বপ্র": 8392,
      "▁সদাপ্রভু": 8393,
      "পথে": 8394,
      "▁পতন": 8395,
      "▁চ্যাপ": 8396,
      "▁ভগ": 8397,
      "▁কার্ল": 8398,
      "▁বেশীর": 8399,
      "২০১": 8400,
      "▁অনি": 8401,
      "▁অবন": 8402,
      "▁খ্রিস্টপূর্ব": 8403,
      "▁ফ্রান্সের": 8404,
      "▁মাহমুদ": 8405,
      "▁স্বভাব": 8406,
      "▁থাকুক": 8407,
      "ড্ড": 8408,
      "▁হের": 8409,
      "▁ঢাল": 8410,
      "▁এক্ষেত্রে": 8411,
      "▁খাই": 8412,
      "▁আমদান": 8413,
      "▁রক্ষার": 8414,
      "▁হয়;": 8415,
      "▁৪৭": 8416,
      "▁বইয়ে": 8417,
      "▁হিন্দি": 8418,
      "▁পেয়েছে": 8419,
      "▁অর্জনের": 8420,
      "▁আন্দোলনে": 8421,
      "▁বন্দি": 8422,
      "▁মসজিদ,": 8423,
      "▁(হ": 8424,
      "▁ইহা": 8425,
      "▁তোমাদিগকে": 8426,
      "▁ধর্মঘ": 8427,
      "▁মোশি": 8428,
      "▁এজন্য": 8429,
      "▁রাশিয়ান": 8430,
      "▁পাবে।": 8431,
      "▁গোয়েন": 8432,
      "িজাত": 8433,
      "নকে": 8434,
      "▁\"র": 8435,
      "▁ঘোড়া": 8436,
      "▁বসতি": 8437,
      "▁বংশের": 8438,
      "▁কথোপক": 8439,
      "ীর্ত": 8440,
      "িকাল": 8441,
      "▁সংজ্ঞ": 8442,
      "▁কারখান": 8443,
      "ৃঙ্খল": 8444,
      "▁নিষ্ক্রিয়": 8445,
      "বাড়ি": 8446,
      "▁আরেকজন": 8447,
      "▁দারুণ": 8448,
      "▁মুহূর্তে": 8449,
      "▁এখানেই": 8450,
      "গুণ": 8451,
      "৪),": 8452,
      "▁করছিল": 8453,
      "▁উপযোগী": 8454,
      "িব্যব": 8455,
      "সময়ে": 8456,
      "▁আব্ব": 8457,
      "▁প্রারম্ভিক": 8458,
      "▁কনফিগার": 8459,
      "▁ফো": 8460,
      "স্যু": 8461,
      "▁সর্ব্ব": 8462,
      "▁দিচ্ছে": 8463,
      "▁বানানো": 8464,
      "রাসী": 8465,
      "-কে": 8466,
      "থিত": 8467,
      "ন্দর্য": 8468,
      "▁'ক": 8469,
      "▁শিক্ষিত": 8470,
      "▁কারাদণ্ড": 8471,
      "তামূলক": 8472,
      "ৃক্ত": 8473,
      "ামান": 8474,
      "জনিত": 8475,
      "▁ভূষিত": 8476,
      "▁করান": 8477,
      "▁নীর": 8478,
      "▁(উ": 8479,
      "ুনের": 8480,
      "▁অনু.": 8481,
      "▁ইসলামিক": 8482,
      "▁ধন্যবাদ।": 8483,
      "াভাবিক": 8484,
      "য়াস": 8485,
      "▁সিড": 8486,
      "▁মধ্যকার": 8487,
      "▁নেয়ার": 8488,
      "▁পর্বত": 8489,
      "▁নিরাপত্তার": 8490,
      "ভাষী": 8491,
      "▁বেগম": 8492,
      "▁গোষ্ঠীর": 8493,
      "▁ইট": 8494,
      "▁সাক্ষীদের": 8495,
      "▁ঘটতে": 8496,
      "▁একইভাবে": 8497,
      "পুত্র": 8498,
      "▁উঠেছে।": 8499,
      "▁(প্রকাশিত": 8500,
      "▁জানুয়ারী": 8501,
      "িস,": 8502,
      "▁থাকত": 8503,
      "▁৩৯": 8504,
      "▁হলো,": 8505,
      "▁আয়ার": 8506,
      "▁নাক": 8507,
      "▁যাচ": 8508,
      "▁স্টু": 8509,
      "▁পুনরা": 8510,
      "▁নিরু": 8511,
      "র্দু": 8512,
      "▁শ্বাস": 8513,
      "র্কে": 8514,
      "সংখ্যা": 8515,
      "▁পড়েছে।": 8516,
      "▁স্বরূপ,": 8517,
      "বরের": 8518,
      "▁হ্যাল": 8519,
      "্যাটেল": 8520,
      "▁ওয়াশিং": 8521,
      "▁লাহ": 8522,
      "▁পর্য্যন্ত": 8523,
      "▁ঈশ্বর,": 8524,
      "▁পরিবেশন": 8525,
      "▁কর্মসূচি": 8526,
      "▁১৯৬৯": 8527,
      "ষি": 8528,
      "৭১": 8529,
      "▁ওঠা": 8530,
      "▁রেলপথ": 8531,
      "৪৬": 8532,
      "▁খামার": 8533,
      "▁ধীর": 8534,
      "▁পায়,": 8535,
      "▁দুর্ভ": 8536,
      "▁আলম": 8537,
      "▁বিদ্যালয়ে": 8538,
      "▁ভাই-বোন": 8539,
      "তাদের": 8540,
      "পঞ্জ": 8541,
      "▁রূ": 8542,
      "▁অনুষ": 8543,
      "▁জানো": 8544,
      "শীপ": 8545,
      "▁পুকুর": 8546,
      "িজের": 8547,
      "▁চিন্তাধ": 8548,
      "▁দাও।": 8549,
      "▁গাড়ির": 8550,
      "▁নিত": 8551,
      "▁ক্লিন": 8552,
      "▁গায়ে": 8553,
      "▁আর্ট": 8554,
      "▁লবণ": 8555,
      "▁৪৬": 8556,
      "সিংহ": 8557,
      "▁স্যাম": 8558,
      "▁অনুধ": 8559,
      "▁স্তম্ভ": 8560,
      "▁পাপের": 8561,
      "▁সবসময়ই": 8562,
      "▁অদৃশ্য": 8563,
      "ষ্কৃত": 8564,
      "▁করবেন?": 8565,
      "▁সোসাইটির": 8566,
      "▁আমলে": 8567,
      "্ধব": 8568,
      "শাসিত": 8569,
      "▁জন্মগ্রহণকারী": 8570,
      "▁গুলো": 8571,
      "▁বীমা": 8572,
      "্শন": 8573,
      "▁প্রফেস": 8574,
      "▁পর্যালো": 8575,
      "▁বিন্যাস": 8576,
      "▁আচরণের": 8577,
      "▁ত্রাণ": 8578,
      "▁হাঁস": 8579,
      "▁নিয়ন্ত্রিত": 8580,
      "▁'প্র": 8581,
      "▁সামুদ্র": 8582,
      "▁ফার্ম": 8583,
      "▁পোষ": 8584,
      "▁পৃষ্ঠপোষ": 8585,
      "▁অবশ্য,": 8586,
      "▁শ্রমিকদের": 8587,
      "াসি": 8588,
      "▁হই,": 8589,
      "▁অগ্ন": 8590,
      "▁(ড": 8591,
      "▁মহাপ": 8592,
      "▁ইসলামের": 8593,
      "▁সুনির্দিষ্ট": 8594,
      "সাই": 8595,
      "ব্যা": 8596,
      "ৃক": 8597,
      "▁অনুসারী": 8598,
      "▁উপজেলায়": 8599,
      "▁জ্ঞানের": 8600,
      "৮),": 8601,
      "▁কর্ন": 8602,
      "▁গম্বুজ": 8603,
      "▁চক": 8604,
      "▁আসন্ন": 8605,
      "▁অধিদ": 8606,
      "▁অবস্থানে": 8607,
      "▁প্রকৃতির": 8608,
      "▁তীর": 8609,
      "▁নহ": 8610,
      "▁গন্ধ": 8611,
      "িন্তু": 8612,
      "▁দ্বারা,": 8613,
      "▁কম।": 8614,
      "▁ইউনিট": 8615,
      "▁শুক্র": 8616,
      "▁হই।": 8617,
      "▁ব্যার": 8618,
      "▁টুল": 8619,
      "▁কারিগ": 8620,
      "▁সাধারণভাবে": 8621,
      "▁ফাউন্ডেশন": 8622,
      "▁কমিয়ে": 8623,
      "▁সৌন্দর্য": 8624,
      "▁মজার": 8625,
      "াকালে": 8626,
      "▁হলো।": 8627,
      "▁মতো,": 8628,
      "▁চার্লস": 8629,
      "▁জাপানি": 8630,
      "▁মালিকানা": 8631,
      "▁নোবেল": 8632,
      "ংকার": 8633,
      "রিতে": 8634,
      "িস্থ": 8635,
      "▁টের": 8636,
      "▁প্রচারের": 8637,
      "র্নামেন্ট": 8638,
      "▁টেলিফ": 8639,
      "▁শ্রেণির": 8640,
      "চ্যুত": 8641,
      "▁রোধ": 8642,
      "▁বলিদ": 8643,
      "▁মাথার": 8644,
      "▁স্থিত": 8645,
      "▁ঐক্য": 8646,
      "▁পাবেন": 8647,
      "ঠার": 8648,
      "▁চান।": 8649,
      "জনীন": 8650,
      "▁পোষণ": 8651,
      "▁বস্তুগত": 8652,
      "▁পরিতৃ": 8653,
      "ঘরে": 8654,
      "মনের": 8655,
      "▁যম": 8656,
      "সংকল্প": 8657,
      "িউরি": 8658,
      "বন্ধু": 8659,
      "▁কোরিয়ার": 8660,
      "▁সাপেক্ষে": 8661,
      "▁বিস্ফো": 8662,
      "বর্গ": 8663,
      "্যাশ": 8664,
      "▁লোকেদেরকে": 8665,
      "▁যতটা": 8666,
      "▁হস্তান্তর": 8667,
      "▁দৌড়": 8668,
      "▁প্রধানমন্ত্র": 8669,
      "▁ক্লিক": 8670,
      "▁দেখান।": 8671,
      "▁সিভিল": 8672,
      "ভূমিতে": 8673,
      "▁করিবার": 8674,
      "শিল্পী": 8675,
      "ভাজন": 8676,
      "▁প্রাধান": 8677,
      "▁যাচ্ছি": 8678,
      "▁মার্ট": 8679,
      "▁আওতা": 8680,
      "ঁদ": 8681,
      "▁নাম্বার": 8682,
      "▁১৯৭৩": 8683,
      "▁বলিয়া": 8684,
      "▁তো,": 8685,
      "▁মশীহ": 8686,
      "চিহ্ন": 8687,
      "▁এও": 8688,
      "▁আভ": 8689,
      "▁আলে": 8690,
      "▁মিছিল": 8691,
      "▁পুস্ত": 8692,
      "▁চলে।": 8693,
      "খাস্ত": 8694,
      "▁ছিলো।": 8695,
      "▁সুপরিচিত": 8696,
      "তাই": 8697,
      "▁অন্বেষ": 8698,
      "▁করবো": 8699,
      "ঘা": 8700,
      "▁১৯৮৭": 8701,
      "▁ভারী": 8702,
      "▁অপব্যবহার": 8703,
      "▁উদ্দীপ": 8704,
      "▁খ্রিস্টাব্দের": 8705,
      "▁বাঁধা": 8706,
      "▁টুর্নামেন্ট": 8707,
      "৩৪": 8708,
      "্বোড": 8709,
      "▁রাজাবলি": 8710,
      "▁ষড়": 8711,
      "▁বরাদ্দ": 8712,
      "িক্যাল": 8713,
      "▁এইরূপ": 8714,
      "▁চেহারা": 8715,
      "▁পত্রিকায়": 8716,
      "▁কুমিল": 8717,
      "▁ক্যালিফ": 8718,
      "▁ধর্ষণ": 8719,
      "▁খেলেন।": 8720,
      "সাক্ষ": 8721,
      "েশ্বর": 8722,
      "তাঁ": 8723,
      "▁স্থগিত": 8724,
      "▁আদায়": 8725,
      "▁হোস্ট": 8726,
      "▁আনুমানিক": 8727,
      "৩২": 8728,
      "▁শের": 8729,
      "▁(@": 8730,
      "চ্চার": 8731,
      "▁আজার": 8732,
      "▁বিধিব্যব": 8733,
      "▁পররাষ্ট্র": 8734,
      "▁যাচ্ছে,": 8735,
      "▁টাইপ": 8736,
      "▁সিপিআই": 8737,
      "▁বলেই": 8738,
      "▁সুনাম": 8739,
      "৫৫": 8740,
      "▁কহ": 8741,
      "▁দেয়াল": 8742,
      "▁দেবী": 8743,
      "স্থানীয়": 8744,
      "▁কমান্ডার": 8745,
      "▁রয়": 8746,
      "▁লিও": 8747,
      "চর্": 8748,
      "▁সমতল": 8749,
      "▁উৎপাদনের": 8750,
      "▁অণ": 8751,
      "▁'প": 8752,
      "▁বেথ": 8753,
      "▁উত্তরা": 8754,
      "▁পরিচিত,": 8755,
      "▁১৯১৪": 8756,
      "▁কানাড": 8757,
      "রিত": 8758,
      "▁ক্যান্স": 8759,
      "▁সন্ধান": 8760,
      "▁সংল": 8761,
      "পক্ষে,": 8762,
      "▁অনূর্ধ্ব": 8763,
      "জম": 8764,
      "▁রিজ": 8765,
      "▁১৯৬৭": 8766,
      "▁১৯৭৪": 8767,
      "▁১৯৩০": 8768,
      "▁মায়ান": 8769,
      "শূ": 8770,
      "▁শুদ্ধ": 8771,
      "▁তা-ই": 8772,
      "▁কৃতিত্ব": 8773,
      "▁তালিকাভুক্ত": 8774,
      "▁থাকলেও": 8775,
      "▁সিন্ধ": 8776,
      "▁ক্যামেরা": 8777,
      "▁সংক্ষেপে": 8778,
      "বোর্ড": 8779,
      "ুল্ক": 8780,
      "▁দেওয়": 8781,
      "▁পরিদর্শ": 8782,
      "▁করতে।": 8783,
      "▁করেছিল?": 8784,
      "▁মার্চ,": 8785,
      "▁নির্ভরযোগ্য": 8786,
      "▁আলেক": 8787,
      "▁খাম": 8788,
      "▁১৯৮৮": 8789,
      "ালেমে": 8790,
      "ম্পন্ন": 8791,
      "▁যেগুলোর": 8792,
      "▁ইউএস": 8793,
      "মাণবিক": 8794,
      "▁পর্যন্ত,": 8795,
      "▁১৭:১": 8796,
      "▁মেশিন": 8797,
      "গড়া": 8798,
      "▁তাস": 8799,
      "▁জিত": 8800,
      "▁গায়": 8801,
      "▁ইউরোপে": 8802,
      "▁জাতীয়তাবাদী": 8803,
      "▁সামুদ্রিক": 8804,
      "টেন": 8805,
      "ডস": 8806,
      "স্পষ্ট": 8807,
      "▁দূরত্ব": 8808,
      "তঃ": 8809,
      "▁এঁ": 8810,
      "▁সম্পদের": 8811,
      "▁হাতিয়ার": 8812,
      "উদ্দীন": 8813,
      "▁ফ্রি": 8814,
      "▁মহাম": 8815,
      "▁সকলকে": 8816,
      "▁পুনরুত্থিত": 8817,
      "▁নওয়াব": 8818,
      "তুর": 8819,
      "ারক": 8820,
      "▁হিংস": 8821,
      "▁হত্যার": 8822,
      "▁আসবে।": 8823,
      "▁কার্যকারী": 8824,
      "▁হ্যা,": 8825,
      "াল্ড": 8826,
      "▁কারণ,": 8827,
      "▁বিস্ময়কর": 8828,
      "▁দের": 8829,
      "▁'য": 8830,
      "▁নার্স": 8831,
      "বুকে": 8832,
      "▁পরমদেশ": 8833,
      "আমি": 8834,
      "াণ্ড": 8835,
      "▁যাবে,": 8836,
      "▁রক্তের": 8837,
      "লনীক": 8838,
      "▁মেক্সিকো": 8839,
      "শোধ": 8840,
      "১),": 8841,
      "মাতে": 8842,
      "সংখ্যক": 8843,
      "▁ব্যক্তি,": 8844,
      "▁বাস্তবায়ন": 8845,
      "▁অগ্রগতি": 8846,
      "▁ডিজাইন": 8847,
      "▁হউ": 8848,
      "▁অনুসার": 8849,
      "▁কার্য্য": 8850,
      "▁সভাগুলোতে": 8851,
      "▁অ্যাপ্লিক": 8852,
      "▁করছি,": 8853,
      "বার্গ": 8854,
      "▁কালে": 8855,
      "▁আকৃষ্ট": 8856,
      "▁বেলায়": 8857,
      "▁থিষলনীক": 8858,
      "ক্ব": 8859,
      "▁দিকে,": 8860,
      "▁মোকা": 8861,
      "▁বললেন,": 8862,
      "▁নীচের": 8863,
      "▁কূটনৈতিক": 8864,
      "কুল": 8865,
      "রাত্ম": 8866,
      "▁করেছি,": 8867,
      "▁আপাত": 8868,
      "▁দূষণ": 8869,
      "▁স্তরের": 8870,
      "▁যান,": 8871,
      "▁অপশন": 8872,
      "-শ্রে": 8873,
      "ধারী": 8874,
      "▁পোপ": 8875,
      "্যারা": 8876,
      "ামীদের": 8877,
      "▁বেকার": 8878,
      "▁দেখাশোনা": 8879,
      "▁মৃত্যুদণ্ড": 8880,
      "▁পুনরালো": 8881,
      "▁করতেন,": 8882,
      "▁১৪:১": 8883,
      "▁খনন": 8884,
      "▁হারে": 8885,
      "সূচক": 8886,
      "▁বিনোদন": 8887,
      "▁দার্শন": 8888,
      "▁চিন্তাভাবনা": 8889,
      "▁নিক্ষেপ": 8890,
      "▁ফট": 8891,
      "▁বিনামূল": 8892,
      "▁আনুষ্ঠানিকভাবে": 8893,
      "▁গোল্ডেন": 8894,
      "হাই": 8895,
      "৩৭": 8896,
      "ভাগের": 8897,
      "-২০১": 8898,
      "▁কাউন্সিলের": 8899,
      "▁অল্পবয়সি": 8900,
      "▁পাঠ:": 8901,
      "-পশ্চিম": 8902,
      "খিল": 8903,
      "▁চেত": 8904,
      "▁লাফ": 8905,
      "▁অর্ডার": 8906,
      "▁কুয়ে": 8907,
      "▁বাসিন্দ": 8908,
      "▁১৯৮৬": 8909,
      "▁অর্থনীতির": 8910,
      "▁জৈব": 8911,
      "▁প্রায়শই": 8912,
      "▁নই": 8913,
      "▁আমোদ": 8914,
      "▁\"ফ": 8915,
      "▁৪২": 8916,
      "▁ব্ল্যাক": 8917,
      "▁বোঝাতে": 8918,
      "▁দৈর্ঘ্য": 8919,
      "ড়িয়া": 8920,
      "▁সেট": 8921,
      "▁ছুটি": 8922,
      "▁চলছে।": 8923,
      "▁দায়িত্বে": 8924,
      "▁ঘটেছে": 8925,
      "▁মাটিতে": 8926,
      "▁চলমান": 8927,
      "▁মুক্তিযোদ্ধ": 8928,
      "▁তুরস্ক": 8929,
      "ওয়ের": 8930,
      "▁সম্পৃক্ত": 8931,
      "▁জানি,": 8932,
      "▁রাষ্ট্রপতির": 8933,
      "▁বোকা": 8934,
      "▁দু-": 8935,
      "▁কার্যাবল": 8936,
      "-ইন": 8937,
      "▁অনুধাবন": 8938,
      "▁দুশ্চ": 8939,
      "▁সরকার,": 8940,
      "▁;": 8941,
      "োনার": 8942,
      "▁থাকি।": 8943,
      "▁করলেও": 8944,
      "▁উদ্বেগ": 8945,
      "ি)": 8946,
      "▁চায়,": 8947,
      "▁ব্যবহারকারীর": 8948,
      "▁ইস্রায়েলীয়রা": 8949,
      "▁পরিচারক": 8950,
      "▁নয়?": 8951,
      "ীকরণের": 8952,
      "▁প্রাথমিকভাবে": 8953,
      "▁সংবিধানের": 8954,
      "▁আড়": 8955,
      "▁আংশ": 8956,
      "▁সম্পাদনা": 8957,
      "বলের": 8958,
      "▁অট": 8959,
      "চারী": 8960,
      "▁তিব": 8961,
      "▁যাত্তয়া": 8962,
      "▁এখন,": 8963,
      "▁গণমাধ্য": 8964,
      "▁দক্ষিণ-পূর্ব": 8965,
      "▁উভয়ের": 8966,
      "▁আঁকা": 8967,
      "▁ক্যালিফোর্": 8968,
      "-গ": 8969,
      "▁দাল": 8970,
      "▁(শ": 8971,
      "▁খাতে": 8972,
      "▁বিদায়": 8973,
      "▁সামগ্রী": 8974,
      "-যুব": 8975,
      "করী": 8976,
      "নশীল": 8977,
      "িডিয়া": 8978,
      "▁চারপাশে": 8979,
      "▁তেজ": 8980,
      "৫৭": 8981,
      "▁লেফট": 8982,
      "▁বিচারপতি": 8983,
      "▁মূল্যায়ন": 8984,
      "▁করছেন,": 8985,
      "▁সংকট": 8986,
      "স্থানের": 8987,
      "▁কার্যালয়": 8988,
      "▁হেঁটে": 8989,
      "▁হয়েছেন": 8990,
      "ঈশ্বরের": 8991,
      "▁কখনই": 8992,
      "▁১৯৭৯": 8993,
      "▁দুঃখকষ্ট": 8994,
      "▁চাপের": 8995,
      "▁অপ্রত্যা": 8996,
      "৬৮": 8997,
      "্ট্র": 8998,
      "াই।": 8999,
      "াক্কা": 9000,
      "▁মিষ্টি": 9001,
      "▁আগমন": 9002,
      "▁জাহাজের": 9003,
      "▁যন্ত্রপাতি": 9004,
      "ৃশ": 9005,
      "▁প্রভুর": 9006,
      "-আপ": 9007,
      "খি": 9008,
      "াপয়": 9009,
      "াউন্ট": 9010,
      "▁সেন্সর": 9011,
      "▁গাঁ": 9012,
      "▁ইমে": 9013,
      "▁উত্তেজ": 9014,
      "▁বিল্ডিং": 9015,
      "▁লাইব্রেরি": 9016,
      "াইজিত": 9017,
      "▁বৈঠ": 9018,
      "▁সংরক্ষণের": 9019,
      "▁কিমি।": 9020,
      "িসং": 9021,
      "▁রাহ": 9022,
      "▁অবধি": 9023,
      "ঙ্কিত": 9024,
      "▁ক্লাবের": 9025,
      "▁ব্রাজিল": 9026,
      "▁যেত।": 9027,
      "ক্ষরিক": 9028,
      "▁ভ্রাতৃ": 9029,
      "টপ": 9030,
      "্যাজ": 9031,
      "▁সার্ক": 9032,
      "▁১১:২": 9033,
      ":৪,": 9034,
      "▁দৃঢ়সংকল্প": 9035,
      "▁পুত": 9036,
      "▁হইল": 9037,
      "▁হাজির": 9038,
      "▁অস্বাভাবিক": 9039,
      "▁ওয়ান": 9040,
      "▁(বর্ত": 9041,
      "ক্তিক": 9042,
      "্রেস": 9043,
      "▁জানত": 9044,
      "▁সময়ই": 9045,
      "▁কমপক্ষে": 9046,
      "▁লোভ": 9047,
      "▁যাইহোক,": 9048,
      "রাত": 9049,
      "াময়": 9050,
      "▁নেতারা": 9051,
      "▁স্থাপনের": 9052,
      "▁কোর্ট": 9053,
      "▁একাডেমী": 9054,
      "▁সৌজন্যে": 9055,
      ".এম": 9056,
      "িথ": 9057,
      "▁স্নে": 9058,
      "্মান": 9059,
      "▁নেপাল": 9060,
      "▁উচ্চারণ": 9061,
      "▁জন্মের": 9062,
      "▁বসন্ত": 9063,
      "এনএ": 9064,
      "▁সংসদে": 9065,
      "▁হাট,": 9066,
      "সভার": 9067,
      "▁মহাক": 9068,
      "▁মে,": 9069,
      "▁রয়েছে:": 9070,
      "▁পেয়েছিলেন।": 9071,
      "▁প্রাধান্য": 9072,
      "▁ইথ": 9073,
      "▁করা;": 9074,
      "▁ড্যান": 9075,
      "োরি": 9076,
      "▁''": 9077,
      "▁মহৎ": 9078,
      "▁অবরোধ": 9079,
      "দাদ": 9080,
      "▁জীবন্ত": 9081,
      "পাতের": 9082,
      "▁প্ররো": 9083,
      "▁কাজ,": 9084,
      "▁বয়সের": 9085,
      "▁খ্রীষ্টানের": 9086,
      "▁লাগবে": 9087,
      "▁শেখার": 9088,
      "▁আঁক": 9089,
      "▁অবকাঠ": 9090,
      "▁শাসনাম": 9091,
      "▁বলল,": 9092,
      "্যায়ে": 9093,
      "▁৬,": 9094,
      "▁জাগ": 9095,
      "▁বুঝিয়ে": 9096,
      "৬৯": 9097,
      "▁পারমাণবিক": 9098,
      "▁\"ড": 9099,
      "▁ক্ষত": 9100,
      "▁সামঞ্জস্য": 9101,
      "▁বাসায়": 9102,
      "▁স্টেডিয়": 9103,
      "প্লেক্স": 9104,
      "▁জুগিয়ে": 9105,
      "দশ": 9106,
      "▁গম": 9107,
      "সম্যান": 9108,
      "▁নাগরিকরা": 9109,
      "▁নির্ভরশীল": 9110,
      "▁কাব্য": 9111,
      "ঁজ": 9112,
      "▁সফলভাবে": 9113,
      "▁১৮.": 9114,
      "▁দুঃখজনক": 9115,
      "▁পঞ্চায়ে": 9116,
      "▁রিচার্ড": 9117,
      "▁করছিল।": 9118,
      "▁চাইলে": 9119,
      "▁১৯৮৫": 9120,
      "▁অভিযোগে": 9121,
      "-নি": 9122,
      "▁তৃণ": 9123,
      "▁আবুল": 9124,
      "▁এরপর,": 9125,
      "ুয়েল": 9126,
      "▁সংকেত": 9127,
      "রিদ": 9128,
      "সম্পন্ন": 9129,
      "্রাল": 9130,
      "▁বার্ম": 9131,
      "▁উৎক": 9132,
      "▁জাদুঘর": 9133,
      "▁ইঞ্জিনিয়ারিং": 9134,
      "▁রৌ": 9135,
      "▁কাজী": 9136,
      "▁গীত.": 9137,
      "▁অস্থির": 9138,
      "▁অযোগ্য": 9139,
      "▁চালানোর": 9140,
      "▁অপরিহার": 9141,
      "▁স্নায়": 9142,
      "▁জরুরী": 9143,
      "▁দপ্তর": 9144,
      "▁বেগ": 9145,
      "▁জুন,": 9146,
      "▁পঞ্চাশ": 9147,
      "কাহ": 9148,
      "হতি": 9149,
      "ছিল?": 9150,
      "ুলা": 9151,
      "▁পারবো": 9152,
      "▁শিবির": 9153,
      "▁যাচাই": 9154,
      "▁বধ": 9155,
      "▁ডাল": 9156,
      "▁হয়।\"": 9157,
      "▁পদত্যাগ": 9158,
      "▁প্রবর্তন": 9159,
      "▁তারকা": 9160,
      "▁জানায়।": 9161,
      "শিক্ষা": 9162,
      "▁কাদের": 9163,
      "▁পান্ড": 9164,
      "▁লোকটা": 9165,
      "▁তিনটে": 9166,
      "▁দিল্লি": 9167,
      "▁পৌঁছানোর": 9168,
      "▁টাকাপয়": 9169,
      "▁অপ্রত্যাশিত": 9170,
      "▁\"\"": 9171,
      "গ্রাহ": 9172,
      "▁সহস্র": 9173,
      "▁হাসি": 9174,
      "▁আস্তে": 9175,
      "▁সিনিয়": 9176,
      "▁হুস": 9177,
      "▁শিকা": 9178,
      "▁দেহের": 9179,
      "▁(ঘ": 9180,
      "মিট": 9181,
      "▁বারো": 9182,
      "▁সদয়": 9183,
      "▁হিল": 9184,
      "▁চেষ্ট": 9185,
      "▁কর্তব্য": 9186,
      "▁সুলত": 9187,
      "ষ্প": 9188,
      "দায়িক": 9189,
      "রাগ": 9190,
      "ছে:": 9191,
      "▁চিক": 9192,
      "▁(উপ": 9193,
      "▁স্কট": 9194,
      "▁৮:১": 9195,
      "▁বংশধর": 9196,
      "▁বিজ্ঞানের": 9197,
      "শান": 9198,
      "রাতে": 9199,
      "▁খড়": 9200,
      "বিয়া": 9201,
      "▁পাও": 9202,
      "▁মূল্যের": 9203,
      "র্গঠ": 9204,
      "▁বিশ্বাসকে": 9205,
      "▁১৯৪৮": 9206,
      "▁গীতর": 9207,
      "▁নিরুৎস": 9208,
      "▁প্যান": 9209,
      "▁ক্রিয়া": 9210,
      "▁মিঃ": 9211,
      "▁ঢুকে": 9212,
      "ভেদ": 9213,
      "লাইন": 9214,
      "▁মঞ্জ": 9215,
      "্বে": 9216,
      "▁র্যা": 9217,
      "ঙ্গিক": 9218,
      "দিয়া": 9219,
      "▁আসলে,": 9220,
      "ংকর": 9221,
      "▁আগত": 9222,
      "▁ভীত": 9223,
      "▁কারণে,": 9224,
      "▁চৌধুর": 9225,
      "▁উপদেষ্টা": 9226,
      "োপল": 9227,
      "▁দুঃখের": 9228,
      "মাদের": 9229,
      "▁বিন্দু": 9230,
      "▁উয়ে": 9231,
      "▁কী,": 9232,
      "▁ঘোষিত": 9233,
      "▁বিবেক": 9234,
      "▁শাখ": 9235,
      "▁এভাবেই": 9236,
      "বিশ্বস্ত": 9237,
      "▁স্বেচ্ছায়": 9238,
      "▁শনি": 9239,
      "▁কথা।": 9240,
      "▁পূর্বপুরুষ": 9241,
      "▁বছরেরও": 9242,
      "ধারার": 9243,
      "▁প্রতিবেশী": 9244,
      "▁প্রচেষ্টার": 9245,
      "রু": 9246,
      "▁করতে,": 9247,
      "ার্টমেন্ট": 9248,
      "▁উর্দু": 9249,
      "▁গ্যা": 9250,
      "▁পরিপ্রে": 9251,
      "রেট": 9252,
      "▁জনতার": 9253,
      "▁৫৪": 9254,
      "প্তাহ": 9255,
      "▁চলেছে।": 9256,
      "▁দাগ": 9257,
      "▁১৯২০": 9258,
      "▁অধিকাংশই": 9259,
      "োপাধ্যায়": 9260,
      "▁সমিতির": 9261,
      "মিং": 9262,
      "▁ইতিমধ্যে": 9263,
      "ঙ্খ": 9264,
      "কাজ": 9265,
      "▁ফেসবুকে": 9266,
      "▁\"ধ": 9267,
      "▁জার্মানির": 9268,
      "▁ই-মে": 9269,
      "▁সুস্পষ্ট": 9270,
      "▁গুগল": 9271,
      "▁(যাত্র": 9272,
      "▁নারীরা": 9273,
      "▁ক্ষতিপূ": 9274,
      "▁বোধগম": 9275,
      "-শ্রেণীর": 9276,
      "টনের": 9277,
      "গ্রন্থ": 9278,
      "▁ভিতর": 9279,
      "▁ব্যবহারিক": 9280,
      "▁১৫০": 9281,
      "▁১৯৭৬": 9282,
      "▁রেখেছে।": 9283,
      "▁যোগাযোগের": 9284,
      "▁টুয়েন্টি": 9285,
      "খালী": 9286,
      "ূলে": 9287,
      "▁সংখ্যায়": 9288,
      "▁অতীতে": 9289,
      "নির্ব": 9290,
      "▁ফেডারেশন": 9291,
      "▁উপাধি": 9292,
      "এব,": 9293,
      "▁(মার্ক": 9294,
      "▁২)": 9295,
      "▁তাহলে,": 9296,
      "ুবান": 9297,
      "▁বোঝায়": 9298,
      "▁এপ্রিল,": 9299,
      "▁উন্মো": 9300,
      "▁তামিল": 9301,
      "▁পাহাড়ের": 9302,
      "ৌজ": 9303,
      "িকোর": 9304,
      "ান্তি": 9305,
      "▁(১৯০": 9306,
      "▁প্রভাবশালী": 9307,
      "ফু": 9308,
      "▁লং": 9309,
      "▁'ম": 9310,
      "▁৪৩": 9311,
      "▁ভাইস": 9312,
      "▁১৬:১": 9313,
      "▁স্যার,": 9314,
      "▁গ্রুপের": 9315,
      "▁প্রলোভ": 9316,
      "ডেট": 9317,
      "▁অবহ": 9318,
      "▁পেছ": 9319,
      "▁দৌরাত্ম": 9320,
      "▁ক্রমবর্ধ": 9321,
      "বতী": 9322,
      "▁জ্বল": 9323,
      "▁নিচু": 9324,
      "ঙ্গুল": 9325,
      "▁ক্রীড়": 9326,
      "ব্যুন": 9327,
      "▁বিভাগ,": 9328,
      "▁হতাশা": 9329,
      "▁প্রাপ": 9330,
      "▁মধ্যেও": 9331,
      "৫৪": 9332,
      "▁পন্ডিত": 9333,
      "▁তথা": 9334,
      "োগান": 9335,
      "▁জনাব": 9336,
      "▁পর্যটন": 9337,
      "▁ছাত্রছাত্র": 9338,
      "▁অধিনায়ক": 9339,
      "▁(\"": 9340,
      "▁কার্যকল": 9341,
      "▁দূরবর্তী": 9342,
      "▁প্রয়োজনীয়তা": 9343,
      "▁ফরম": 9344,
      "▁হুই": 9345,
      "▁সে।": 9346,
      "▁কপিরাই": 9347,
      "▁সিনিয়র": 9348,
      "▁মাতা": 9349,
      "▁ইম্প": 9350,
      "জ্ঞার": 9351,
      "▁তাহাদিগকে": 9352,
      "▁কেন্দ্রটি": 9353,
      "▁আন্তঃ": 9354,
      "▁মূল্যবোধ": 9355,
      "▁পড়ি": 9356,
      "▁মিউজিক": 9357,
      "আপ": 9358,
      "▁দায়ের": 9359,
      "▁সাউথ": 9360,
      "জাহ": 9361,
      "ডো": 9362,
      "েনি": 9363,
      "▁উপকরণ": 9364,
      "▁ডিক": 9365,
      "▁প্রশস্ত": 9366,
      "▁যাদেরকে": 9367,
      "▁ডিসেম্বর,": 9368,
      "▁সুবিধ": 9369,
      "▁রকমের": 9370,
      "ান্টিক": 9371,
      "▁বুন": 9372,
      "▁সমীক্ষা": 9373,
      "▁সংকল": 9374,
      "▁ছাপা": 9375,
      "োক্ক": 9376,
      "িবর্ত": 9377,
      "ফারেন্স": 9378,
      "্যর্থ": 9379,
      "▁ত্রি": 9380,
      "াসিত": 9381,
      "▁সাহসের": 9382,
      "▁অন্যতম।": 9383,
      "▁কমিউনিটি": 9384,
      "ূন": 9385,
      "ারস": 9386,
      "▁সমর্থিত": 9387,
      "▁হ্যাশট": 9388,
      "চালক": 9389,
      "▁সর্বপ্রথম": 9390,
      "▁মীর": 9391,
      "িকা,": 9392,
      "▁বাবামা": 9393,
      "▁স্তরে": 9394,
      "▁ট্রাইব্যুন": 9395,
      "জাজ": 9396,
      "▁মাপ": 9397,
      "▁অশ্ব": 9398,
      "▁পড়ে,": 9399,
      "▁শিক্ষার্থীদের": 9400,
      "▁ভাইবোনদের": 9401,
      "-ভ": 9402,
      "ধারন": 9403,
      "▁নিশ্চয়তা": 9404,
      "▁(যেমন": 9405,
      "):": 9406,
      "৯),": 9407,
      "াকোব": 9408,
      "েল,": 9409,
      "▁যাও,": 9410,
      "▁জাতিগত": 9411,
      "ফত": 9412,
      "বাইজ": 9413,
      "মারের": 9414,
      "▁বন্ধন": 9415,
      "▁পানিতে": 9416,
      "▁কাঠাম": 9417,
      "▁নির্ণয়": 9418,
      "দন": 9419,
      "▁ভ্যাল": 9420,
      "▁১লা": 9421,
      "▁ব্যবহারকারীদের": 9422,
      "▁সন্ধ্যা": 9423,
      "▁গবাদিপ": 9424,
      "▁পায়ের": 9425,
      "টা,": 9426,
      "▁ফস": 9427,
      "স্থায়": 9428,
      "দারি": 9429,
      "▁ছয়টি": 9430,
      "▁টুকরো": 9431,
      "▁নিপীড়": 9432,
      "▁সেসব": 9433,
      "▁২য়": 9434,
      "▁একটি।": 9435,
      "▁করেনি": 9436,
      "▁ধরে।": 9437,
      "▁কোমল": 9438,
      "প্রেস": 9439,
      "▁মস্ক": 9440,
      "্টন": 9441,
      "▁প্রতিশোধ": 9442,
      "▁ক্ষেত্রেই": 9443,
      "▁১৯৪০": 9444,
      "▁'আমি": 9445,
      "▁ক্রমশ": 9446,
      "▁সিরিজের": 9447,
      "▁পুনরালোচনা": 9448,
      "?'": 9449,
      "ুয়াল": 9450,
      "েনি।": 9451,
      "ুলার": 9452,
      "▁১৫:১": 9453,
      "▁ভিডিওতে": 9454,
      "▁প্রযুক্তির": 9455,
      "▁ইভেন্ট": 9456,
      "ুচ": 9457,
      "▁স্যাটেল": 9458,
      "▁(বা": 9459,
      "▁জনপ্রিয়তা": 9460,
      "▁অতএব,": 9461,
      "▁তবুও,": 9462,
      "কার্যকর": 9463,
      "াময়িক": 9464,
      "▁চাব": 9465,
      "ড়ির": 9466,
      "িরো": 9467,
      "▁স্বত্ব": 9468,
      "ড়া,": 9469,
      "সেট": 9470,
      "ুষিত": 9471,
      "▁আধা": 9472,
      "▁ঊর্ধ্ব": 9473,
      "▁সাহিত্যের": 9474,
      "▁ম্যানেজার": 9475,
      "িষ্ণু": 9476,
      "▁আক্ষরিক": 9477,
      "▁করো,": 9478,
      "▁শুল্ক": 9479,
      "▁ভিট": 9480,
      "▁রেজিস্ট": 9481,
      "▁৭৫": 9482,
      "▁অঙ্গীকার": 9483,
      "▁ডেভেল": 9484,
      "▁ভাস্কর্য": 9485,
      "▁বিংশ": 9486,
      "▁পার্ট": 9487,
      "▁জাগিয়ে": 9488,
      "▁দেবেন।": 9489,
      "▁পরিবেশের": 9490,
      "▁যুবক-যুব": 9491,
      "নাট্য": 9492,
      "▁টেলিফোন": 9493,
      "াতি": 9494,
      "৯৮": 9495,
      "্রু": 9496,
      "▁জোন": 9497,
      "▁খস": 9498,
      "ঙ্কের": 9499,
      "▁কমপ্লেক্স": 9500,
      "▁অনুসারীদের": 9501,
      "▁কৈ": 9502,
      "▁ক্লে": 9503,
      "্রিন": 9504,
      "▁সংযোজন": 9505,
      "▁মুর্শ": 9506,
      "▁বরিশ": 9507,
      "▁১৯৬৫": 9508,
      "▁১৯৫১": 9509,
      "▁সিরিয়া": 9510,
      "▁নজরুল": 9511,
      "▁দুশ্চিন্ত": 9512,
      "▁বারবার": 9513,
      "▁চলাচল": 9514,
      "▁নিউজিল্যান্ড": 9515,
      "▁অন্বেষণ": 9516,
      "চরণ": 9517,
      "▁১ম": 9518,
      "াইম": 9519,
      "▁ফর্ম": 9520,
      "▁অভিম": 9521,
      "▁৫৩": 9522,
      "▁উদ্ভূত": 9523,
      "▁প্রতিষ্ঠানে": 9524,
      "▁মহিলার": 9525,
      "▁\"তোমার": 9526,
      "▁রদ": 9527,
      "▁থাকি,": 9528,
      "▁তুষ": 9529,
      "▁সম্মিলিত": 9530,
      "▁পর্": 9531,
      "ির্ব": 9532,
      "▁মনোর": 9533,
      "▁রেখা": 9534,
      "▁১৯৭৮": 9535,
      "▁ম্যাচে": 9536,
      "্যুত্থ": 9537,
      "▁শলোমন": 9538,
      "▁নকল": 9539,
      "মিটার": 9540,
      "▁সূক্ষ্ম": 9541,
      "▁ভিডিওটি": 9542,
      "ফি.": 9543,
[...]
